{
  "version": "1.0",
  "truncation": null,
  "padding": null,
  "added_tokens": [
    {
      "id": 0,
      "content": "[PAD]",
      "single_word": false,
      "lstrip": false,
      "rstrip": false,
      "normalized": false,
      "special": true
    },
    {
      "id": 1,
      "content": "[UNK]",
      "single_word": false,
      "lstrip": false,
      "rstrip": false,
      "normalized": false,
      "special": true
    },
    {
      "id": 2,
      "content": "[CLS]",
      "single_word": false,
      "lstrip": false,
      "rstrip": false,
      "normalized": false,
      "special": true
    },
    {
      "id": 3,
      "content": "[SEP]",
      "single_word": false,
      "lstrip": false,
      "rstrip": false,
      "normalized": false,
      "special": true
    },
    {
      "id": 4,
      "content": "[MASK]",
      "single_word": false,
      "lstrip": false,
      "rstrip": false,
      "normalized": false,
      "special": true
    }
  ],
  "normalizer": {
    "type": "NFKC"
  },
  "pre_tokenizer": {
    "type": "Sequence",
    "pretokenizers": [
      {
        "type": "Whitespace"
      },
      {
        "type": "Punctuation",
        "behavior": "Isolated"
      }
    ]
  },
  "post_processor": null,
  "decoder": null,
  "model": {
    "type": "BPE",
    "dropout": null,
    "unk_token": "[UNK]",
    "continuing_subword_prefix": null,
    "end_of_word_suffix": null,
    "fuse_unk": false,
    "byte_fallback": false,
    "ignore_merges": false,
    "vocab": {
      "[PAD]": 0,
      "[UNK]": 1,
      "[CLS]": 2,
      "[SEP]": 3,
      "[MASK]": 4,
      "!": 5,
      "\"": 6,
      "'": 7,
      "(": 8,
      ")": 9,
      ",": 10,
      "-": 11,
      ".": 12,
      "0": 13,
      "1": 14,
      "2": 15,
      "3": 16,
      "4": 17,
      "5": 18,
      "6": 19,
      "7": 20,
      "8": 21,
      "9": 22,
      ":": 23,
      ";": 24,
      "?": 25,
      "A": 26,
      "B": 27,
      "C": 28,
      "D": 29,
      "E": 30,
      "F": 31,
      "H": 32,
      "I": 33,
      "J": 34,
      "K": 35,
      "L": 36,
      "M": 37,
      "N": 38,
      "O": 39,
      "P": 40,
      "Q": 41,
      "R": 42,
      "S": 43,
      "T": 44,
      "U": 45,
      "V": 46,
      "W": 47,
      "X": 48,
      "Y": 49,
      "Z": 50,
      "a": 51,
      "b": 52,
      "c": 53,
      "d": 54,
      "e": 55,
      "f": 56,
      "g": 57,
      "h": 58,
      "i": 59,
      "j": 60,
      "k": 61,
      "l": 62,
      "m": 63,
      "n": 64,
      "o": 65,
      "p": 66,
      "q": 67,
      "r": 68,
      "s": 69,
      "t": 70,
      "u": 71,
      "v": 72,
      "w": 73,
      "x": 74,
      "y": 75,
      "z": 76,
      "А": 77,
      "Б": 78,
      "В": 79,
      "Г": 80,
      "Д": 81,
      "Е": 82,
      "Ж": 83,
      "З": 84,
      "И": 85,
      "К": 86,
      "Л": 87,
      "М": 88,
      "Н": 89,
      "О": 90,
      "П": 91,
      "Р": 92,
      "С": 93,
      "Т": 94,
      "У": 95,
      "Ф": 96,
      "Х": 97,
      "Ц": 98,
      "Ч": 99,
      "Ш": 100,
      "Щ": 101,
      "Ь": 102,
      "Э": 103,
      "Ю": 104,
      "Я": 105,
      "а": 106,
      "б": 107,
      "в": 108,
      "г": 109,
      "д": 110,
      "е": 111,
      "ж": 112,
      "з": 113,
      "и": 114,
      "й": 115,
      "к": 116,
      "л": 117,
      "м": 118,
      "н": 119,
      "о": 120,
      "п": 121,
      "р": 122,
      "с": 123,
      "т": 124,
      "у": 125,
      "ф": 126,
      "х": 127,
      "ц": 128,
      "ч": 129,
      "ш": 130,
      "щ": 131,
      "ъ": 132,
      "ы": 133,
      "ь": 134,
      "э": 135,
      "ю": 136,
      "я": 137,
      "то": 138,
      "на": 139,
      "не": 140,
      "но": 141,
      "ст": 142,
      "ал": 143,
      "го": 144,
      "по": 145,
      "ко": 146,
      "ни": 147,
      "ка": 148,
      "во": 149,
      "ро": 150,
      "ра": 151,
      "ел": 152,
      "ть": 153,
      "ре": 154,
      "ви": 155,
      "ри": 156,
      "ло": 157,
      "ла": 158,
      "бы": 159,
      "что": 160,
      "ли": 161,
      "ва": 162,
      "ве": 163,
      "се": 164,
      "же": 165,
      "за": 166,
      "ле": 167,
      "до": 168,
      "от": 169,
      "да": 170,
      "те": 171,
      "ся": 172,
      "де": 173,
      "он": 174,
      "че": 175,
      "сь": 176,
      "ны": 177,
      "му": 178,
      "ме": 179,
      "мо": 180,
      "ти": 181,
      "ми": 182,
      "та": 183,
      "ки": 184,
      "вы": 185,
      "ру": 186,
      "со": 187,
      "ска": 188,
      "ну": 189,
      "ль": 190,
      "ала": 191,
      "про": 192,
      "его": 193,
      "ди": 194,
      "это": 195,
      "при": 196,
      "бе": 197,
      "ду": 198,
      "пе": 199,
      "бо": 200,
      "ня": 201,
      "все": 202,
      "она": 203,
      "ше": 204,
      "са": 205,
      "ча": 206,
      "ля": 207,
      "хо": 208,
      "ма": 209,
      "ста": 210,
      "ши": 211,
      "сказ": 212,
      "как": 213,
      "дел": 214,
      "жи": 215,
      "нно": 216,
      "ку": 217,
      "сто": 218,
      "об": 219,
      "зна": 220,
      "ние": 221,
      "си": 222,
      "чи": 223,
      "раз": 224,
      "ее": 225,
      "сво": 226,
      "нь": 227,
      "ры": 228,
      "гово": 229,
      "кото": 230,
      "ет": 231,
      "сти": 232,
      "пре": 233,
      "ско": 234,
      "ты": 235,
      "еви": 236,
      "ще": 237,
      "вал": 238,
      "из": 239,
      "Леви": 240,
      "было": 241,
      "гда": 242,
      "лу": 243,
      "сть": 244,
      "тел": 245,
      "ей": 246,
      "бу": 247,
      "ски": 248,
      "лю": 249,
      "лек": 250,
      "ния": 251,
      "сказал": 252,
      "Алек": 253,
      "вст": 254,
      "чу": 255,
      "па": 256,
      "говори": 257,
      "рь": 258,
      "ря": 259,
      "лько": 260,
      "мы": 261,
      "ему": 262,
      "так": 263,
      "дь": 264,
      "под": 265,
      "ту": 266,
      "лы": 267,
      "жа": 268,
      "ги": 269,
      "би": 270,
      "пи": 271,
      "тель": 272,
      "Левин": 273,
      "га": 274,
      "спо": 275,
      "вер": 276,
      "Он": 277,
      "ба": 278,
      "дру": 279,
      "дно": 280,
      "ша": 281,
      "ело": 282,
      "лся": 283,
      "ву": 284,
      "щи": 285,
      "нны": 286,
      "вши": 287,
      "гла": 288,
      "жно": 289,
      "пере": 290,
      "кой": 291,
      "рас": 292,
      "али": 293,
      "дела": 294,
      "Да": 295,
      "вая": 296,
      "рон": 297,
      "чувст": 298,
      "ало": 299,
      "ться": 300,
      "был": 301,
      "гу": 302,
      "когда": 303,
      "только": 304,
      "том": 305,
      "сле": 306,
      "дро": 307,
      "ский": 308,
      "хот": 309,
      "Но": 310,
      "пра": 311,
      "гля": 312,
      "Врон": 313,
      "сказала": 314,
      "которы": 315,
      "чего": 316,
      "сан": 317,
      "вз": 318,
      "Алексан": 319,
      "мне": 320,
      "перь": 321,
      "ды": 322,
      "сли": 323,
      "Александро": 324,
      "шь": 325,
      "Она": 326,
      "ем": 327,
      "для": 328,
      "пу": 329,
      "су": 330,
      "ела": 331,
      "бя": 332,
      "ха": 333,
      "ер": 334,
      "дол": 335,
      "дет": 336,
      "ца": 337,
      "была": 338,
      "пред": 339,
      "которо": 340,
      "сло": 341,
      "Ка": 342,
      "чем": 343,
      "ком": 344,
      "Ан": 345,
      "него": 346,
      "оче": 347,
      "ходи": 348,
      "мал": 349,
      "шел": 350,
      "тельно": 351,
      "боль": 352,
      "теперь": 353,
      "Ки": 354,
      "ней": 355,
      "уже": 356,
      "нее": 357,
      "см": 358,
      "еще": 359,
      "Кити": 360,
      "каз": 361,
      "вно": 362,
      "чувство": 363,
      "рка": 364,
      "ясь": 365,
      "Алексе": 366,
      "лась": 367,
      "ез": 368,
      "По": 369,
      "улы": 370,
      "ке": 371,
      "жал": 372,
      "вич": 373,
      "Арка": 374,
      "Аркадь": 375,
      "нима": 376,
      "эти": 377,
      "того": 378,
      "быть": 379,
      "дя": 380,
      "их": 381,
      "воз": 382,
      "им": 383,
      "смот": 384,
      "ск": 385,
      "слу": 386,
      "жет": 387,
      "вала": 388,
      "меня": 389,
      "це": 390,
      "стра": 391,
      "ство": 392,
      "вать": 393,
      "голо": 394,
      "Сте": 395,
      "Степа": 396,
      "Аркадьи": 397,
      "ним": 398,
      "ный": 399,
      "ным": 400,
      "мя": 401,
      "пя": 402,
      "ная": 403,
      "отве": 404,
      "поло": 405,
      "тому": 406,
      "аль": 407,
      "ной": 408,
      "вле": 409,
      "жение": 410,
      "они": 411,
      "чтобы": 412,
      "зя": 413,
      "Вронский": 414,
      "сы": 415,
      "ного": 416,
      "ели": 417,
      "проси": 418,
      "вре": 419,
      "очень": 420,
      "себя": 421,
      "Анна": 422,
      "себе": 423,
      "были": 424,
      "жен": 425,
      "жде": 426,
      "этого": 427,
      "бра": 428,
      "стоя": 429,
      "оста": 430,
      "говорил": 431,
      "сте": 432,
      "нии": 433,
      "мог": 434,
      "люби": 435,
      "чал": 436,
      "Ну": 437,
      "хоро": 438,
      "тем": 439,
      "елове": 440,
      "Ива": 441,
      "шу": 442,
      "тре": 443,
      "цо": 444,
      "ского": 445,
      "челове": 446,
      "ные": 447,
      "жиз": 448,
      "ничего": 449,
      "стро": 450,
      "гра": 451,
      "ис": 452,
      "дал": 453,
      "пять": 454,
      "ное": 455,
      "Алексей": 456,
      "ех": 457,
      "шо": 458,
      "дума": 459,
      "есть": 460,
      "одно": 461,
      "Степан": 462,
      "Аркадьич": 463,
      "Не": 464,
      "или": 465,
      "улыб": 466,
      "кня": 467,
      "стве": 468,
      "стви": 469,
      "сме": 470,
      "нет": 471,
      "обра": 472,
      "све": 473,
      "после": 474,
      "До": 475,
      "тя": 476,
      "сказа": 477,
      "ную": 478,
      "Это": 479,
      "кто": 480,
      "кон": 481,
      "сту": 482,
      "сча": 483,
      "взгля": 484,
      "Александрович": 485,
      "пы": 486,
      "воль": 487,
      "глаза": 488,
      "вя": 489,
      "име": 490,
      "алось": 491,
      "жу": 492,
      "поня": 493,
      "собе": 494,
      "Ивано": 495,
      "фи": 496,
      "вшись": 497,
      "Что": 498,
      "дер": 499,
      "время": 500,
      "вля": 501,
      "ют": 502,
      "пер": 503,
      "особе": 504,
      "вна": 505,
      "крас": 506,
      "час": 507,
      "чно": 508,
      "вес": 509,
      "ром": 510,
      "может": 511,
      "потому": 512,
      "будет": 513,
      "Сер": 514,
      "кры": 515,
      "Ва": 516,
      "без": 517,
      "само": 518,
      "На": 519,
      "друг": 520,
      "дей": 521,
      "опять": 522,
      "сно": 523,
      "бле": 524,
      "слы": 525,
      "доро": 526,
      "кое": 527,
      "ется": 528,
      "Нет": 529,
      "ят": 530,
      "надо": 531,
      "боле": 532,
      "Ко": 533,
      "если": 534,
      "дом": 535,
      "Как": 536,
      "ин": 537,
      "ных": 538,
      "ща": 539,
      "вой": 540,
      "лись": 541,
      "обе": 542,
      "вше": 543,
      "думал": 544,
      "лли": 545,
      "шла": 546,
      "заме": 547,
      "ете": 548,
      "кого": 549,
      "друго": 550,
      "пла": 551,
      "лицо": 552,
      "которые": 553,
      "лось": 554,
      "можно": 555,
      "чувствовал": 556,
      "особенно": 557,
      "цу": 558,
      "всегда": 559,
      "ался": 560,
      "делать": 561,
      "две": 562,
      "руку": 563,
      "тот": 564,
      "чала": 565,
      "сказать": 566,
      "Серг": 567,
      "ешь": 568,
      "рел": 569,
      "Долли": 570,
      "Ни": 571,
      "шего": 572,
      "кра": 573,
      "пол": 574,
      "нул": 575,
      "вь": 576,
      "од": 577,
      "спроси": 578,
      "говорить": 579,
      "знал": 580,
      "сла": 581,
      "ску": 582,
      "ний": 583,
      "свое": 584,
      "ками": 585,
      "нием": 586,
      "ства": 587,
      "мни": 588,
      "мину": 589,
      "понима": 590,
      "доб": 591,
      "выра": 592,
      "ющи": 593,
      "дин": 594,
      "этом": 595,
      "могу": 596,
      "нем": 597,
      "зы": 598,
      "дело": 599,
      "вали": 600,
      "нови": 601,
      "нное": 602,
      "вый": 603,
      "Левина": 604,
      "разгово": 605,
      "встре": 606,
      "свою": 607,
      "луч": 608,
      "вас": 609,
      "всем": 610,
      "стью": 611,
      "больше": 612,
      "более": 613,
      "совер": 614,
      "Ты": 615,
      "зи": 616,
      "день": 617,
      "сколько": 618,
      "вспо": 619,
      "видел": 620,
      "который": 621,
      "еха": 622,
      "над": 623,
      "Та": 624,
      "тра": 625,
      "тся": 626,
      "стал": 627,
      "сер": 628,
      "вдруг": 629,
      "тво": 630,
      "реши": 631,
      "жения": 632,
      "таки": 633,
      "сты": 634,
      "рая": 635,
      "знаю": 636,
      "говорила": 637,
      "кру": 638,
      "своей": 639,
      "чь": 640,
      "этот": 641,
      "моло": 642,
      "свои": 643,
      "вший": 644,
      "Мо": 645,
      "рез": 646,
      "нный": 647,
      "тру": 648,
      "ожи": 649,
      "ника": 650,
      "дать": 651,
      "ном": 652,
      "поз": 653,
      "прият": 654,
      "женщи": 655,
      "жизни": 656,
      "Вы": 657,
      "бот": 658,
      "ков": 659,
      "деть": 660,
      "взя": 661,
      "жела": 662,
      "кро": 663,
      "ню": 664,
      "которое": 665,
      "казалось": 666,
      "рти": 667,
      "хозя": 668,
      "вопро": 669,
      "ехал": 670,
      "сторо": 671,
      "Все": 672,
      "княги": 673,
      "ель": 674,
      "дум": 675,
      "То": 676,
      "цы": 677,
      "продол": 678,
      "хорошо": 679,
      "мой": 680,
      "проти": 681,
      "подо": 682,
      "нулся": 683,
      "где": 684,
      "жду": 685,
      "радо": 686,
      "вме": 687,
      "мени": 688,
      "будь": 689,
      "хотел": 690,
      "слова": 691,
      "Ве": 692,
      "три": 693,
      "уж": 694,
      "уви": 695,
      "нужно": 696,
      "вое": 697,
      "шая": 698,
      "вот": 699,
      "бой": 700,
      "прав": 701,
      "Сергей": 702,
      "соверше": 703,
      "них": 704,
      "кая": 705,
      "доволь": 706,
      "Дарь": 707,
      "ужа": 708,
      "никогда": 709,
      "тебя": 710,
      "обще": 711,
      "пря": 712,
      "видно": 713,
      "нные": 714,
      "ник": 715,
      "алась": 716,
      "стави": 717,
      "вто": 718,
      "отно": 719,
      "ци": 720,
      "чер": 721,
      "мол": 722,
      "всех": 723,
      "жел": 724,
      "яс": 725,
      "сам": 726,
      "человек": 727,
      "уме": 728,
      "даже": 729,
      "дви": 730,
      "чтоб": 731,
      "тере": 732,
      "лучше": 733,
      "бли": 734,
      "тотчас": 735,
      "вне": 736,
      "спокой": 737,
      "Вронского": 738,
      "Ра": 739,
      "два": 740,
      "нибудь": 741,
      "улыба": 742,
      "дво": 743,
      "ской": 744,
      "ехать": 745,
      "полу": 746,
      "тебе": 747,
      "буду": 748,
      "могла": 749,
      "други": 750,
      "один": 751,
      "ум": 752,
      "стя": 753,
      "мина": 754,
      "прежде": 755,
      "Ма": 756,
      "вра": 757,
      "зо": 758,
      "той": 759,
      "муж": 760,
      "своего": 761,
      "останови": 762,
      "жизнь": 763,
      "счаст": 764,
      "потом": 765,
      "лоша": 766,
      "Вот": 767,
      "вало": 768,
      "нным": 769,
      "нему": 770,
      "льзя": 771,
      "ваясь": 772,
      "нельзя": 773,
      "нию": 774,
      "кий": 775,
      "бла": 776,
      "сдел": 777,
      "нного": 778,
      "знако": 779,
      "вам": 780,
      "интере": 781,
      "Так": 782,
      "зь": 783,
      "шли": 784,
      "Иванович": 785,
      "любо": 786,
      "слыш": 787,
      "сю": 788,
      "глядя": 789,
      "Ми": 790,
      "ались": 791,
      "спра": 792,
      "кие": 793,
      "буд": 794,
      "вую": 795,
      "ною": 796,
      "Когда": 797,
      "Ли": 798,
      "вся": 799,
      "род": 800,
      "образ": 801,
      "Александрови": 802,
      "отноше": 803,
      "кри": 804,
      "води": 805,
      "отвечал": 806,
      "будто": 807,
      "гру": 808,
      "каза": 809,
      "слов": 810,
      "совершенно": 811,
      "глу": 812,
      "нове": 813,
      "елы": 814,
      "ставля": 815,
      "За": 816,
      "между": 817,
      "чит": 818,
      "которая": 819,
      "люб": 820,
      "комна": 821,
      "улыбкой": 822,
      "рую": 823,
      "вместе": 824,
      "улыбаясь": 825,
      "нова": 826,
      "вия": 827,
      "кре": 828,
      "спе": 829,
      "твер": 830,
      "казы": 831,
      "жала": 832,
      "гор": 833,
      "тил": 834,
      "думала": 835,
      "тоже": 836,
      "пор": 837,
      "весело": 838,
      "хозяй": 839,
      "вери": 840,
      "сов": 841,
      "жить": 842,
      "ере": 843,
      "вым": 844,
      "объ": 845,
      "послед": 846,
      "йте": 847,
      "свя": 848,
      "пой": 849,
      "рень": 850,
      "знала": 851,
      "Левину": 852,
      "гото": 853,
      "поч": 854,
      "лег": 855,
      "дем": 856,
      "деле": 857,
      "мыс": 858,
      "обы": 859,
      "ваться": 860,
      "душе": 861,
      "этим": 862,
      "смотря": 863,
      "пле": 864,
      "там": 865,
      "чая": 866,
      "ге": 867,
      "шно": 868,
      "нче": 869,
      "вался": 870,
      "графи": 871,
      "спросил": 872,
      "вшего": 873,
      "эту": 874,
      "мужи": 875,
      "самы": 876,
      "тут": 877,
      "ским": 878,
      "пусти": 879,
      "испы": 880,
      "Во": 881,
      "вспомни": 882,
      "Если": 883,
      "бно": 884,
      "эта": 885,
      "нула": 886,
      "много": 887,
      "тро": 888,
      "своим": 889,
      "хотела": 890,
      "юсь": 891,
      "ров": 892,
      "ким": 893,
      "нув": 894,
      "прави": 895,
      "Об": 896,
      "лов": 897,
      "сама": 898,
      "очевидно": 899,
      "выражение": 900,
      "работ": 901,
      "стан": 902,
      "нной": 903,
      "пись": 904,
      "дала": 905,
      "лица": 906,
      "дере": 907,
      "хоче": 908,
      "которой": 909,
      "счастли": 910,
      "От": 911,
      "возможно": 912,
      "вари": 913,
      "нных": 914,
      "дли": 915,
      "мысли": 916,
      "Варень": 917,
      "Раз": 918,
      "рю": 919,
      "чера": 920,
      "бави": 921,
      "хотя": 922,
      "которого": 923,
      "Те": 924,
      "зем": 925,
      "всего": 926,
      "Александровна": 927,
      "ху": 928,
      "видеть": 929,
      "лон": 930,
      "думать": 931,
      "одна": 932,
      "огля": 933,
      "уди": 934,
      "Дарья": 935,
      "II": 936,
      "тер": 937,
      "руки": 938,
      "скому": 939,
      "подня": 940,
      "перед": 941,
      "голову": 942,
      "шую": 943,
      "ан": 944,
      "вел": 945,
      "вели": 946,
      "сделать": 947,
      "давно": 948,
      "дете": 949,
      "ными": 950,
      "против": 951,
      "докто": 952,
      "другой": 953,
      "благо": 954,
      "свой": 955,
      "чувству": 956,
      "Миха": 957,
      "ках": 958,
      "вол": 959,
      "дой": 960,
      "минуту": 961,
      "ред": 962,
      "мате": 963,
      "знать": 964,
      "которую": 965,
      "бур": 966,
      "сп": 967,
      "щего": 968,
      "каж": 969,
      "откры": 970,
      "тех": 971,
      "ходя": 972,
      "обрати": 973,
      "Го": 974,
      "равно": 975,
      "дома": 976,
      "сове": 977,
      "совсем": 978,
      "дур": 979,
      "сдела": 980,
      "хи": 981,
      "щу": 982,
      "быстро": 983,
      "ких": 984,
      "сомне": 985,
      "этому": 986,
      "вшие": 987,
      "разговор": 988,
      "Ах": 989,
      "Свия": 990,
      "кла": 991,
      "шло": 992,
      "сом": 993,
      "ствие": 994,
      "Свияж": 995,
      "дра": 996,
      "нная": 997,
      "стно": 998,
      "ран": 999,
      "ская": 1000,
      "холо": 1001,
      "положение": 1002,
      "красне": 1003,
      "Моск": 1004,
      "княгиня": 1005,
      "ень": 1006,
      "повто": 1007,
      "кола": 1008,
      "держа": 1009,
      "зу": 1010,
      "шед": 1011,
      "смотрел": 1012,
      "человека": 1013,
      "почти": 1014,
      "нье": 1015,
      "Облон": 1016,
      "Они": 1017,
      "несколько": 1018,
      "неприят": 1019,
      "мужа": 1020,
      "произ": 1021,
      "этой": 1022,
      "должен": 1023,
      "Кон": 1024,
      "спи": 1025,
      "нулась": 1026,
      "души": 1027,
      "кончи": 1028,
      "нынче": 1029,
      "состоя": 1030,
      "просто": 1031,
      "куда": 1032,
      "Алексея": 1033,
      "Никола": 1034,
      "бро": 1035,
      "жна": 1036,
      "уй": 1037,
      "тол": 1038,
      "наде": 1039,
      "кор": 1040,
      "жении": 1041,
      "Михай": 1042,
      "щее": 1043,
      "сси": 1044,
      "прибави": 1045,
      "чита": 1046,
      "гости": 1047,
      "ребе": 1048,
      "сили": 1049,
      "види": 1050,
      "мер": 1051,
      "собой": 1052,
      "Сере": 1053,
      "здоро": 1054,
      "находи": 1055,
      "помо": 1056,
      "жена": 1057,
      "жил": 1058,
      "прекрас": 1059,
      "серд": 1060,
      "нра": 1061,
      "ъез": 1062,
      "ясно": 1063,
      "стари": 1064,
      "держи": 1065,
      "испыты": 1066,
      "ор": 1067,
      "ья": 1068,
      "силь": 1069,
      "жется": 1070,
      "объяс": 1071,
      "Анны": 1072,
      "гром": 1073,
      "нов": 1074,
      "вших": 1075,
      "долго": 1076,
      "Теперь": 1077,
      "вшая": 1078,
      "нную": 1079,
      "пошел": 1080,
      "вает": 1081,
      "заня": 1082,
      "мать": 1083,
      "этих": 1084,
      "глазами": 1085,
      "ею": 1086,
      "зде": 1087,
      "кнове": 1088,
      "недо": 1089,
      "чему": 1090,
      "вые": 1091,
      "высо": 1092,
      "чат": 1093,
      "стара": 1094,
      "счасть": 1095,
      "Пет": 1096,
      "своих": 1097,
      "добро": 1098,
      "удоволь": 1099,
      "нас": 1100,
      "несмотря": 1101,
      "стало": 1102,
      "деся": 1103,
      "говорили": 1104,
      "любовь": 1105,
      "Александровича": 1106,
      "При": 1107,
      "втра": 1108,
      "шка": 1109,
      "рот": 1110,
      "своем": 1111,
      "тый": 1112,
      "чувствовала": 1113,
      "ожида": 1114,
      "внима": 1115,
      "ок": 1116,
      "тно": 1117,
      "коле": 1118,
      "чина": 1119,
      "людей": 1120,
      "которых": 1121,
      "смотр": 1122,
      "матери": 1123,
      "Мы": 1124,
      "чки": 1125,
      "наро": 1126,
      "сей": 1127,
      "брата": 1128,
      "спраши": 1129,
      "станти": 1130,
      "Константи": 1131,
      "Про": 1132,
      "жало": 1133,
      "испо": 1134,
      "зад": 1135,
      "стар": 1136,
      "ских": 1137,
      "малень": 1138,
      "понимаю": 1139,
      "Лиди": 1140,
      "шком": 1141,
      "стала": 1142,
      "изве": 1143,
      "большо": 1144,
      "XX": 1145,
      "всю": 1146,
      "видела": 1147,
      "дав": 1148,
      "такое": 1149,
      "согла": 1150,
      "прости": 1151,
      "привы": 1152,
      "вопрос": 1153,
      "знакомы": 1154,
      "кни": 1155,
      "прел": 1156,
      "ству": 1157,
      "ском": 1158,
      "ствия": 1159,
      "самое": 1160,
      "мысль": 1161,
      "обыкнове": 1162,
      "нка": 1163,
      "начала": 1164,
      "рени": 1165,
      "нею": 1166,
      "вых": 1167,
      "сами": 1168,
      "которым": 1169,
      "an": 1170,
      "Бет": 1171,
      "чка": 1172,
      "кажется": 1173,
      "вод": 1174,
      "зави": 1175,
      "лет": 1176,
      "мое": 1177,
      "отвечала": 1178,
      "ехала": 1179,
      "свет": 1180,
      "серди": 1181,
      "сейчас": 1182,
      "еди": 1183,
      "тон": 1184,
      "тогда": 1185,
      "винова": 1186,
      "сем": 1187,
      "чай": 1188,
      "скор": 1189,
      "понял": 1190,
      "Веслов": 1191,
      "Мне": 1192,
      "опре": 1193,
      "охот": 1194,
      "спа": 1195,
      "убе": 1196,
      "хва": 1197,
      "вышел": 1198,
      "гли": 1199,
      "начал": 1200,
      "нувшись": 1201,
      "вное": 1202,
      "особенности": 1203,
      "ев": 1204,
      "обо": 1205,
      "шля": 1206,
      "нам": 1207,
      "пожал": 1208,
      "значе": 1209,
      "пис": 1210,
      "Карени": 1211,
      "валась": 1212,
      "Бетси": 1213,
      "приня": 1214,
      "еду": 1215,
      "оскор": 1216,
      "най": 1217,
      "реть": 1218,
      "завтра": 1219,
      "бес": 1220,
      "сказы": 1221,
      "ские": 1222,
      "положения": 1223,
      "етер": 1224,
      "правда": 1225,
      "le": 1226,
      "пло": 1227,
      "паль": 1228,
      "пока": 1229,
      "рад": 1230,
      "лен": 1231,
      "люди": 1232,
      "елось": 1233,
      "вольно": 1234,
      "любви": 1235,
      "ит": 1236,
      "сел": 1237,
      "помни": 1238,
      "весь": 1239,
      "рус": 1240,
      "призна": 1241,
      "хотелось": 1242,
      "ственно": 1243,
      "именно": 1244,
      "плать": 1245,
      "Только": 1246,
      "продолжал": 1247,
      "Петер": 1248,
      "нена": 1249,
      "кою": 1250,
      "нить": 1251,
      "говоря": 1252,
      "вшей": 1253,
      "Бо": 1254,
      "рил": 1255,
      "тия": 1256,
      "рази": 1257,
      "шать": 1258,
      "котором": 1259,
      "молча": 1260,
      "отношения": 1261,
      "вчера": 1262,
      "уни": 1263,
      "фран": 1264,
      "тор": 1265,
      "ноги": 1266,
      "ними": 1267,
      "нимал": 1268,
      "вей": 1269,
      "бога": 1270,
      "спомина": 1271,
      "голос": 1272,
      "князь": 1273,
      "здесь": 1274,
      "едет": 1275,
      "иск": 1276,
      "подумал": 1277,
      "слуш": 1278,
      "кроме": 1279,
      "прямо": 1280,
      "ново": 1281,
      "дея": 1282,
      "нуть": 1283,
      "нья": 1284,
      "писа": 1285,
      "зло": 1286,
      "сви": 1287,
      "чку": 1288,
      "жены": 1289,
      "бер": 1290,
      "знаешь": 1291,
      "теле": 1292,
      "Анне": 1293,
      "ступи": 1294,
      "вни": 1295,
      "шки": 1296,
      "точно": 1297,
      "лице": 1298,
      "кую": 1299,
      "слишком": 1300,
      "ходил": 1301,
      "письмо": 1302,
      "жны": 1303,
      "нт": 1304,
      "нер": 1305,
      "нок": 1306,
      "тила": 1307,
      "печат": 1308,
      "хочу": 1309,
      "сила": 1310,
      "Анну": 1311,
      "любил": 1312,
      "образо": 1313,
      "Петербур": 1314,
      "зву": 1315,
      "нако": 1316,
      "приехал": 1317,
      "дели": 1318,
      "знает": 1319,
      "свобо": 1320,
      "жать": 1321,
      "должно": 1322,
      "скры": 1323,
      "страда": 1324,
      "тяж": 1325,
      "своею": 1326,
      "решительно": 1327,
      "женщина": 1328,
      "вли": 1329,
      "цер": 1330,
      "говари": 1331,
      "вошел": 1332,
      "вижу": 1333,
      "место": 1334,
      "понять": 1335,
      "вшее": 1336,
      "подошел": 1337,
      "Варенька": 1338,
      "детей": 1339,
      "смотрела": 1340,
      "Ту": 1341,
      "дня": 1342,
      "даль": 1343,
      "пода": 1344,
      "ницу": 1345,
      "воло": 1346,
      "вид": 1347,
      "вет": 1348,
      "дов": 1349,
      "мере": 1350,
      "може": 1351,
      "тыся": 1352,
      "говорит": 1353,
      "подро": 1354,
      "краси": 1355,
      "сделал": 1356,
      "тяжело": 1357,
      "уве": 1358,
      "устро": 1359,
      "чил": 1360,
      "цать": 1361,
      "одного": 1362,
      "жда": 1363,
      "мра": 1364,
      "кому": 1365,
      "дить": 1366,
      "стой": 1367,
      "обма": 1368,
      "гая": 1369,
      "ужас": 1370,
      "невольно": 1371,
      "деву": 1372,
      "Степана": 1373,
      "сына": 1374,
      "ехали": 1375,
      "думаю": 1376,
      "дверь": 1377,
      "спросила": 1378,
      "Константин": 1379,
      "вшую": 1380,
      "гал": 1381,
      "горя": 1382,
      "покрасне": 1383,
      "вания": 1384,
      "прия": 1385,
      "теля": 1386,
      "ходить": 1387,
      "Аркадьича": 1388,
      "двери": 1389,
      "позво": 1390,
      "графиня": 1391,
      "нрави": 1392,
      "ина": 1393,
      "поспе": 1394,
      "жене": 1395,
      "шей": 1396,
      "чать": 1397,
      "чик": 1398,
      "ское": 1399,
      "мысле": 1400,
      "смотреть": 1401,
      "семь": 1402,
      "вну": 1403,
      "цело": 1404,
      "тою": 1405,
      "нения": 1406,
      "каби": 1407,
      "воспомина": 1408,
      "реше": 1409,
      "тить": 1410,
      "соб": 1411,
      "нными": 1412,
      "вшим": 1413,
      "переби": 1414,
      "Ката": 1415,
      "подробно": 1416,
      "учи": 1417,
      "нец": 1418,
      "поме": 1419,
      "кар": 1420,
      "через": 1421,
      "шие": 1422,
      "представля": 1423,
      "брат": 1424,
      "минуты": 1425,
      "стороны": 1426,
      "других": 1427,
      "дву": 1428,
      "вом": 1429,
      "рой": 1430,
      "такой": 1431,
      "зная": 1432,
      "споко": 1433,
      "верно": 1434,
      "бац": 1435,
      "маль": 1436,
      "испу": 1437,
      "ствительно": 1438,
      "взгляд": 1439,
      "уйста": 1440,
      "Катава": 1441,
      "вперед": 1442,
      "впечат": 1443,
      "кнул": 1444,
      "ост": 1445,
      "нение": 1446,
      "приез": 1447,
      "часто": 1448,
      "обходи": 1449,
      "цуз": 1450,
      "впечатле": 1451,
      "ар": 1452,
      "кло": 1453,
      "назад": 1454,
      "госпо": 1455,
      "рабо": 1456,
      "лени": 1457,
      "дил": 1458,
      "стары": 1459,
      "нною": 1460,
      "право": 1461,
      "суще": 1462,
      "предло": 1463,
      "любить": 1464,
      "щаясь": 1465,
      "Ага": 1466,
      "Щер": 1467,
      "влю": 1468,
      "жали": 1469,
      "счита": 1470,
      "нах": 1471,
      "домой": 1472,
      "дам": 1473,
      "шим": 1474,
      "раздра": 1475,
      "гами": 1476,
      "чувства": 1477,
      "след": 1478,
      "ством": 1479,
      "ступ": 1480,
      "ужасно": 1481,
      "умеется": 1482,
      "легко": 1483,
      "чувствуя": 1484,
      "Облонский": 1485,
      "Оче": 1486,
      "вста": 1487,
      "оно": 1488,
      "ссо": 1489,
      "доса": 1490,
      "чет": 1491,
      "выс": 1492,
      "руками": 1493,
      "ход": 1494,
      "чительно": 1495,
      "преж": 1496,
      "первый": 1497,
      "читал": 1498,
      "определе": 1499,
      "Агаф": 1500,
      "Щербац": 1501,
      "бал": 1502,
      "дали": 1503,
      "усили": 1504,
      "стей": 1505,
      "почувствовал": 1506,
      "ших": 1507,
      "стол": 1508,
      "щей": 1509,
      "рассказы": 1510,
      "иметь": 1511,
      "скую": 1512,
      "ющий": 1513,
      "лошадь": 1514,
      "казать": 1515,
      "es": 1516,
      "нежно": 1517,
      "распо": 1518,
      "лич": 1519,
      "запи": 1520,
      "менно": 1521,
      "тив": 1522,
      "проговорил": 1523,
      "дите": 1524,
      "сут": 1525,
      "представи": 1526,
      "Иванови": 1527,
      "остановился": 1528,
      "англи": 1529,
      "Свияжский": 1530,
      "Ку": 1531,
      "сму": 1532,
      "уби": 1533,
      "стры": 1534,
      "рада": 1535,
      "веде": 1536,
      "ведь": 1537,
      "своему": 1538,
      "вздо": 1539,
      "on": 1540,
      "Ему": 1541,
      "Кня": 1542,
      "шку": 1543,
      "назы": 1544,
      "начина": 1545,
      "ницы": 1546,
      "рения": 1547,
      "вез": 1548,
      "части": 1549,
      "жила": 1550,
      "пить": 1551,
      "правле": 1552,
      "люблю": 1553,
      "казывая": 1554,
      "доктор": 1555,
      "Из": 1556,
      "Ро": 1557,
      "ино": 1558,
      "нди": 1559,
      "усло": 1560,
      "почему": 1561,
      "какой": 1562,
      "рен": 1563,
      "вин": 1564,
      "сень": 1565,
      "мей": 1566,
      "созна": 1567,
      "ший": 1568,
      "измени": 1569,
      "остави": 1570,
      "Михайло": 1571,
      "счастье": 1572,
      "зал": 1573,
      "фор": 1574,
      "чке": 1575,
      "нач": 1576,
      "необходи": 1577,
      "пора": 1578,
      "потре": 1579,
      "каре": 1580,
      "зачем": 1581,
      "вышла": 1582,
      "ставле": 1583,
      "говорю": 1584,
      "дый": 1585,
      "времени": 1586,
      "ждения": 1587,
      "вшему": 1588,
      "полне": 1589,
      "сердце": 1590,
      "спокои": 1591,
      "Яш": 1592,
      "нце": 1593,
      "реди": 1594,
      "рукой": 1595,
      "Вронскому": 1596,
      "должна": 1597,
      "слых": 1598,
      "дворя": 1599,
      "Сережа": 1600,
      "Весловский": 1601,
      "француз": 1602,
      "оши": 1603,
      "гом": 1604,
      "поез": 1605,
      "жену": 1606,
      "муже": 1607,
      "сия": 1608,
      "подле": 1609,
      "глаз": 1610,
      "одной": 1611,
      "Васень": 1612,
      "блестя": 1613,
      "вались": 1614,
      "молоды": 1615,
      "своими": 1616,
      "желая": 1617,
      "огляды": 1618,
      "благода": 1619,
      "обратился": 1620,
      "Голени": 1621,
      "стараясь": 1622,
      "испол": 1623,
      "Лидия": 1624,
      "Очень": 1625,
      "Голенище": 1626,
      "is": 1627,
      "Со": 1628,
      "цел": 1629,
      "ница": 1630,
      "отчая": 1631,
      "дешь": 1632,
      "кими": 1633,
      "хом": 1634,
      "встал": 1635,
      "губер": 1636,
      "имел": 1637,
      "любила": 1638,
      "труд": 1639,
      "неприятно": 1640,
      "прибавил": 1641,
      "извест": 1642,
      "влюбле": 1643,
      "белы": 1644,
      "фе": 1645,
      "хуже": 1646,
      "стре": 1647,
      "сед": 1648,
      "притво": 1649,
      "шее": 1650,
      "скоро": 1651,
      "скри": 1652,
      "Ивановна": 1653,
      "Надо": 1654,
      "щая": 1655,
      "круг": 1656,
      "Ведь": 1657,
      "увидал": 1658,
      "слышал": 1659,
      "Сти": 1660,
      "гро": 1661,
      "емы": 1662,
      "рели": 1663,
      "чрез": 1664,
      "нелов": 1665,
      "невозможно": 1666,
      "мило": 1667,
      "пригото": 1668,
      "станови": 1669,
      "Потом": 1670,
      "действительно": 1671,
      "лошади": 1672,
      "работа": 1673,
      "Москве": 1674,
      "Николай": 1675,
      "испытывал": 1676,
      "er": 1677,
      "мало": 1678,
      "спу": 1679,
      "ялся": 1680,
      "какое": 1681,
      "ведли": 1682,
      "причи": 1683,
      "хов": 1684,
      "стать": 1685,
      "главное": 1686,
      "смотри": 1687,
      "счасти": 1688,
      "женщины": 1689,
      "ции": 1690,
      "ссии": 1691,
      "вполне": 1692,
      "едем": 1693,
      "фа": 1694,
      "пола": 1695,
      "важно": 1696,
      "забот": 1697,
      "отво": 1698,
      "дети": 1699,
      "мая": 1700,
      "столь": 1701,
      "общи": 1702,
      "сить": 1703,
      "тым": 1704,
      "головой": 1705,
      "стоял": 1706,
      "глазах": 1707,
      "ются": 1708,
      "вшийся": 1709,
      "справедли": 1710,
      "хочет": 1711,
      "платье": 1712,
      "Па": 1713,
      "ид": 1714,
      "оде": 1715,
      "уез": 1716,
      "торо": 1717,
      "побе": 1718,
      "ваю": 1719,
      "ваше": 1720,
      "вание": 1721,
      "сол": 1722,
      "скоре": 1723,
      "другу": 1724,
      "возь": 1725,
      "любит": 1726,
      "свете": 1727,
      "фигу": 1728,
      "веселы": 1729,
      "разговора": 1730,
      "взял": 1731,
      "другие": 1732,
      "ребенка": 1733,
      "Бы": 1734,
      "ува": 1735,
      "яви": 1736,
      "нес": 1737,
      "коля": 1738,
      "нился": 1739,
      "какие": 1740,
      "зако": 1741,
      "мужу": 1742,
      "живо": 1743,
      "столько": 1744,
      "знаете": 1745,
      "чить": 1746,
      "гляды": 1747,
      "Вронским": 1748,
      "слово": 1749,
      "жалко": 1750,
      "голосом": 1751,
      "положении": 1752,
      "обеда": 1753,
      "другое": 1754,
      "интересо": 1755,
      "комнату": 1756,
      "вла": 1757,
      "тал": 1758,
      "уч": 1759,
      "неве": 1760,
      "серь": 1761,
      "дево": 1762,
      "мира": 1763,
      "соеди": 1764,
      "дух": 1765,
      "всеми": 1766,
      "щен": 1767,
      "бума": 1768,
      "ряд": 1769,
      "вернулся": 1770,
      "правля": 1771,
      "ходили": 1772,
      "брату": 1773,
      "требо": 1774,
      "смеш": 1775,
      "пыт": 1776,
      "поняла": 1777,
      "ющих": 1778,
      "удивле": 1779,
      "холодно": 1780,
      "слушал": 1781,
      "деятельно": 1782,
      "серьез": 1783,
      "Хо": 1784,
      "ждал": 1785,
      "огром": 1786,
      "сня": 1787,
      "нами": 1788,
      "пово": 1789,
      "поле": 1790,
      "вести": 1791,
      "семей": 1792,
      "нности": 1793,
      "бира": 1794,
      "нимая": 1795,
      "улыбнулся": 1796,
      "деньги": 1797,
      "хочешь": 1798,
      "пожалуйста": 1799,
      "вейца": 1800,
      "двух": 1801,
      "Ла": 1802,
      "рал": 1803,
      "успокои": 1804,
      "пос": 1805,
      "поцело": 1806,
      "карти": 1807,
      "сен": 1808,
      "боро": 1809,
      "разу": 1810,
      "щения": 1811,
      "возвра": 1812,
      "дале": 1813,
      "смерти": 1814,
      "ющие": 1815,
      "будут": 1816,
      "твердо": 1817,
      "Разве": 1818,
      "дурно": 1819,
      "поспешно": 1820,
      "am": 1821,
      "узна": 1822,
      "понимал": 1823,
      "вос": 1824,
      "волен": 1825,
      "рак": 1826,
      "забы": 1827,
      "скажи": 1828,
      "душ": 1829,
      "нном": 1830,
      "гать": 1831,
      "страш": 1832,
      "болез": 1833,
      "лицом": 1834,
      "движение": 1835,
      "сделала": 1836,
      "Отчего": 1837,
      "каждый": 1838,
      "преле": 1839,
      "писал": 1840,
      "оскорби": 1841,
      "пал": 1842,
      "рва": 1843,
      "уче": 1844,
      "указывая": 1845,
      "ток": 1846,
      "напротив": 1847,
      "года": 1848,
      "никак": 1849,
      "вообра": 1850,
      "женой": 1851,
      "закры": 1852,
      "чески": 1853,
      "ныне": 1854,
      "няя": 1855,
      "обя": 1856,
      "друга": 1857,
      "должны": 1858,
      "ждение": 1859,
      "могут": 1860,
      "вспомина": 1861,
      "комнаты": 1862,
      "самые": 1863,
      "обыкновенно": 1864,
      "говорят": 1865,
      "идти": 1866,
      "in": 1867,
      "Для": 1868,
      "Ей": 1869,
      "Са": 1870,
      "евна": 1871,
      "исто": 1872,
      "офи": 1873,
      "осторо": 1874,
      "таль": 1875,
      "яг": 1876,
      "новое": 1877,
      "поехал": 1878,
      "вода": 1879,
      "ваго": 1880,
      "теря": 1881,
      "приказ": 1882,
      "присут": 1883,
      "боло": 1884,
      "делал": 1885,
      "оба": 1886,
      "тельным": 1887,
      "щик": 1888,
      "суда": 1889,
      "вной": 1890,
      "После": 1891,
      "случа": 1892,
      "строго": 1893,
      "самом": 1894,
      "край": 1895,
      "оживле": 1896,
      "ужели": 1897,
      "Марь": 1898,
      "валось": 1899,
      "неловко": 1900,
      "бело": 1901,
      "вслед": 1902,
      "кал": 1903,
      "сне": 1904,
      "села": 1905,
      "успе": 1906,
      "товари": 1907,
      "напря": 1908,
      "показалось": 1909,
      "подумала": 1910,
      "восто": 1911,
      "еле": 1912,
      "вечер": 1913,
      "нность": 1914,
      "стоит": 1915,
      "чуть": 1916,
      "тельство": 1917,
      "возбу": 1918,
      "ющим": 1919,
      "нюю": 1920,
      "обяза": 1921,
      "Од": 1922,
      "пру": 1923,
      "настоя": 1924,
      "намере": 1925,
      "корот": 1926,
      "каким": 1927,
      "воспи": 1928,
      "занима": 1929,
      "ден": 1930,
      "скажу": 1931,
      "проч": 1932,
      "бере": 1933,
      "жив": 1934,
      "сторон": 1935,
      "сидел": 1936,
      "избе": 1937,
      "жая": 1938,
      "верх": 1939,
      "крыль": 1940,
      "действо": 1941,
      "одну": 1942,
      "продолжала": 1943,
      "обществе": 1944,
      "повторя": 1945,
      "десяти": 1946,
      "можешь": 1947,
      "испуга": 1948,
      "необходимо": 1949,
      "Гла": 1950,
      "вскри": 1951,
      "гна": 1952,
      "жь": 1953,
      "иг": 1954,
      "ото": 1955,
      "коло": 1956,
      "коми": 1957,
      "риц": 1958,
      "лично": 1959,
      "доче": 1960,
      "тами": 1961,
      "выбо": 1962,
      "сил": 1963,
      "чика": 1964,
      "щение": 1965,
      "могли": 1966,
      "взглядом": 1967,
      "взглянул": 1968,
      "спокойно": 1969,
      "Зачем": 1970,
      "деревне": 1971,
      "удиви": 1972,
      "щую": 1973,
      "прибавила": 1974,
      "зависи": 1975,
      "нынеш": 1976,
      "бля": 1977,
      "блю": 1978,
      "мной": 1979,
      "уда": 1980,
      "удержи": 1981,
      "похо": 1982,
      "показ": 1983,
      "веро": 1984,
      "дож": 1985,
      "отказ": 1986,
      "миная": 1987,
      "бог": 1988,
      "жим": 1989,
      "през": 1990,
      "тые": 1991,
      "переста": 1992,
      "права": 1993,
      "ответ": 1994,
      "могло": 1995,
      "имеет": 1996,
      "противо": 1997,
      "вшиеся": 1998,
      "большой": 1999,
      "свида": 2000,
      "подробности": 2001,
      "Катавасов": 2002,
      "au": 2003,
      "de": 2004,
      "Дми": 2005,
      "вку": 2006,
      "тю": 2007,
      "стали": 2008,
      "вого": 2009,
      "доме": 2010,
      "оте": 2011,
      "оттого": 2012,
      "мор": 2013,
      "тие": 2014,
      "мися": 2015,
      "прошел": 2016,
      "думы": 2017,
      "бою": 2018,
      "часов": 2019,
      "изи": 2020,
      "подви": 2021,
      "служ": 2022,
      "обращаясь": 2023,
      "тяги": 2024,
      "приятно": 2025,
      "увидав": 2026,
      "желал": 2027,
      "верить": 2028,
      "обратилась": 2029,
      "Михайлов": 2030,
      "согласи": 2031,
      "тысяч": 2032,
      "Дмитри": 2033,
      "ите": 2034,
      "ими": 2035,
      "кало": 2036,
      "тки": 2037,
      "уро": 2038,
      "умо": 2039,
      "ющего": 2040,
      "тов": 2041,
      "направле": 2042,
      "никто": 2043,
      "какая": 2044,
      "оты": 2045,
      "отда": 2046,
      "чено": 2047,
      "меся": 2048,
      "мимо": 2049,
      "прочем": 2050,
      "старо": 2051,
      "стола": 2052,
      "парти": 2053,
      "лый": 2054,
      "гад": 2055,
      "слезы": 2056,
      "цами": 2057,
      "предводи": 2058,
      "которою": 2059,
      "случи": 2060,
      "иску": 2061,
      "другого": 2062,
      "радости": 2063,
      "интерес": 2064,
      "кричал": 2065,
      "дерев": 2066,
      "иначе": 2067,
      "англича": 2068,
      "религи": 2069,
      "другую": 2070,
      "осторожно": 2071,
      "Гри": 2072,
      "Шталь": 2073,
      "гнове": 2074,
      "ея": 2075,
      "йти": 2076,
      "кала": 2077,
      "уго": 2078,
      "швейца": 2079,
      "поль": 2080,
      "низ": 2081,
      "роме": 2082,
      "рить": 2083,
      "лак": 2084,
      "лест": 2085,
      "отца": 2086,
      "отъез": 2087,
      "места": 2088,
      "рубле": 2089,
      "Ничего": 2090,
      "счастлив": 2091,
      "III": 2092,
      "значение": 2093,
      "писать": 2094,
      "скорее": 2095,
      "Кроме": 2096,
      "гре": 2097,
      "йдя": 2098,
      "мгнове": 2099,
      "тала": 2100,
      "ую": 2101,
      "узнал": 2102,
      "услых": 2103,
      "чным": 2104,
      "ющее": 2105,
      "насме": 2106,
      "народ": 2107,
      "несомне": 2108,
      "ником": 2109,
      "роб": 2110,
      "мень": 2111,
      "такого": 2112,
      "которому": 2113,
      "страшно": 2114,
      "полови": 2115,
      "строе": 2116,
      "держал": 2117,
      "Кор": 2118,
      "трудно": 2119,
      "близ": 2120,
      "лошадей": 2121,
      "последнее": 2122,
      "найти": 2123,
      "вздох": 2124,
      "Яшвин": 2125,
      "Пра": 2126,
      "жо": 2127,
      "опусти": 2128,
      "сред": 2129,
      "упре": 2130,
      "физи": 2131,
      "цей": 2132,
      "ями": 2133,
      "ности": 2134,
      "посмотрел": 2135,
      "кори": 2136,
      "вою": 2137,
      "бывает": 2138,
      "вами": 2139,
      "вен": 2140,
      "ленно": 2141,
      "выше": 2142,
      "вырази": 2143,
      "сообра": 2144,
      "проис": 2145,
      "подъез": 2146,
      "перемени": 2147,
      "ходила": 2148,
      "Алексею": 2149,
      "пят": 2150,
      "брать": 2151,
      "братом": 2152,
      "хороше": 2153,
      "Иваны": 2154,
      "замеча": 2155,
      "встречу": 2156,
      "молодой": 2157,
      "детьми": 2158,
      "радост": 2159,
      "хозяйство": 2160,
      "прекрасно": 2161,
      "Каренина": 2162,
      "Петербурге": 2163,
      "кабинет": 2164,
      "en": 2165,
      "lle": 2166,
      "вны": 2167,
      "яр": 2168,
      "гой": 2169,
      "нил": 2170,
      "нин": 2171,
      "кам": 2172,
      "виде": 2173,
      "дости": 2174,
      "отвра": 2175,
      "мет": 2176,
      "мого": 2177,
      "тий": 2178,
      "соба": 2179,
      "нуж": 2180,
      "нулись": 2181,
      "стом": 2182,
      "щих": 2183,
      "больно": 2184,
      "цев": 2185,
      "голоса": 2186,
      "взглянув": 2187,
      "самой": 2188,
      "самого": 2189,
      "обещ": 2190,
      "добры": 2191,
      "таким": 2192,
      "вшегося": 2193,
      "выражением": 2194,
      "ou": 2195,
      "Одно": 2196,
      "Пре": 2197,
      "дцать": 2198,
      "осно": 2199,
      "усп": 2200,
      "навли": 2201,
      "ночь": 2202,
      "год": 2203,
      "горо": 2204,
      "коро": 2205,
      "ничто": 2206,
      "зади": 2207,
      "заним": 2208,
      "дочь": 2209,
      "отчего": 2210,
      "моя": 2211,
      "тился": 2212,
      "тая": 2213,
      "приехала": 2214,
      "всей": 2215,
      "сад": 2216,
      "дель": 2217,
      "столо": 2218,
      "судь": 2219,
      "думаешь": 2220,
      "смея": 2221,
      "заметил": 2222,
      "такие": 2223,
      "никакого": 2224,
      "глупо": 2225,
      "Разумеется": 2226,
      "доктора": 2227,
      "недоста": 2228,
      "старался": 2229,
      "страдания": 2230,
      "мрачно": 2231,
      "впечатление": 2232,
      "мужем": 2233,
      "Зна": 2234,
      "Ста": 2235,
      "Фру": 2236,
      "игра": 2237,
      "кем": 2238,
      "нский": 2239,
      "стер": 2240,
      "гов": 2241,
      "понрави": 2242,
      "лаке": 2243,
      "ван": 2244,
      "чест": 2245,
      "мед": 2246,
      "тихо": 2247,
      "выз": 2248,
      "прос": 2249,
      "прислу": 2250,
      "духа": 2251,
      "разве": 2252,
      "раздо": 2253,
      "пременно": 2254,
      "тели": 2255,
      "сказали": 2256,
      "щие": 2257,
      "трен": 2258,
      "ствием": 2259,
      "обедать": 2260,
      "понимает": 2261,
      "Может": 2262,
      "велел": 2263,
      "здоровь": 2264,
      "внимательно": 2265,
      "наконец": 2266,
      "Агафья": 2267,
      "иногда": 2268,
      "Михайловна": 2269,
      "ch": 2270,
      "la": 2271,
      "Ме": 2272,
      "гря": 2273,
      "осве": 2274,
      "чали": 2275,
      "недоволь": 2276,
      "несчаст": 2277,
      "постоя": 2278,
      "воды": 2279,
      "рачи": 2280,
      "лицу": 2281,
      "мую": 2282,
      "мила": 2283,
      "выми": 2284,
      "собою": 2285,
      "нуться": 2286,
      "богу": 2287,
      "часа": 2288,
      "хоть": 2289,
      "широ": 2290,
      "развод": 2291,
      "изви": 2292,
      "рью": 2293,
      "подтвер": 2294,
      "тую": 2295,
      "переме": 2296,
      "рассу": 2297,
      "хотите": 2298,
      "шут": 2299,
      "ступа": 2300,
      "вяза": 2301,
      "Сергея": 2302,
      "вспоминая": 2303,
      "подошла": 2304,
      "другим": 2305,
      "сюда": 2306,
      "портре": 2307,
      "вспомнил": 2308,
      "земле": 2309,
      "холод": 2310,
      "состояние": 2311,
      "старик": 2312,
      "Ивановича": 2313,
      "Княги": 2314,
      "дворян": 2315,
      "ошиб": 2316,
      "Стива": 2317,
      "Вер": 2318,
      "вела": 2319,
      "есте": 2320,
      "оди": 2321,
      "одоб": 2322,
      "сни": 2323,
      "сначала": 2324,
      "считал": 2325,
      "удо": 2326,
      "ужи": 2327,
      "узнать": 2328,
      "употре": 2329,
      "город": 2330,
      "посла": 2331,
      "речь": 2332,
      "ливо": 2333,
      "вается": 2334,
      "седа": 2335,
      "зас": 2336,
      "заве": 2337,
      "запла": 2338,
      "мучительно": 2339,
      "мунди": 2340,
      "тих": 2341,
      "боюсь": 2342,
      "нному": 2343,
      "столу": 2344,
      "сков": 2345,
      "ходит": 2346,
      "одном": 2347,
      "скучно": 2348,
      "Александровичу": 2349,
      "комнате": 2350,
      "вспомнила": 2351,
      "держать": 2352,
      "предложение": 2353,
      "Васенька": 2354,
      "справедливо": 2355,
      "востор": 2356,
      "Де": 2357,
      "окру": 2358,
      "огор": 2359,
      "цве": 2360,
      "нашел": 2361,
      "навстречу": 2362,
      "нож": 2363,
      "пошла": 2364,
      "помина": 2365,
      "потеря": 2366,
      "рила": 2367,
      "вают": 2368,
      "вещи": 2369,
      "середи": 2370,
      "забыл": 2371,
      "замуж": 2372,
      "дене": 2373,
      "месте": 2374,
      "руко": 2375,
      "руба": 2376,
      "пах": 2377,
      "бар": 2378,
      "губы": 2379,
      "следу": 2380,
      "которыми": 2381,
      "шься": 2382,
      "взяв": 2383,
      "сторону": 2384,
      "желез": 2385,
      "двор": 2386,
      "получи": 2387,
      "креп": 2388,
      "бург": 2389,
      "повторил": 2390,
      "прелесть": 2391,
      "отношениях": 2392,
      "дальше": 2393,
      "нахму": 2394,
      "поезд": 2395,
      "Княгиня": 2396,
      "Еще": 2397,
      "зер": 2398,
      "рла": 2399,
      "цем": 2400,
      "чле": 2401,
      "гораздо": 2402,
      "покло": 2403,
      "ников": 2404,
      "вошла": 2405,
      "рах": 2406,
      "быстры": 2407,
      "заговорил": 2408,
      "дая": 2409,
      "часы": 2410,
      "шими": 2411,
      "жимая": 2412,
      "оби": 2413,
      "значи": 2414,
      "разговари": 2415,
      "прези": 2416,
      "валь": 2417,
      "встала": 2418,
      "говорите": 2419,
      "рях": 2420,
      "гах": 2421,
      "глав": 2422,
      "пухов": 2423,
      "ходило": 2424,
      "голове": 2425,
      "просить": 2426,
      "грам": 2427,
      "Неужели": 2428,
      "смер": 2429,
      "тяну": 2430,
      "Серпухов": 2431,
      "дороги": 2432,
      "встретил": 2433,
      "надцать": 2434,
      "ставил": 2435,
      "двока": 2436,
      "мужчи": 2437,
      "вспомнив": 2438,
      "Москву": 2439,
      "гостиную": 2440,
      "удовольствия": 2441,
      "мыслей": 2442,
      "записку": 2443,
      "прелест": 2444,
      "Дмитрич": 2445,
      "re": 2446,
      "Ви": 2447,
      "Пе": 2448,
      "ить": 2449,
      "рту": 2450,
      "тром": 2451,
      "хри": 2452,
      "чо": 2453,
      "новой": 2454,
      "горе": 2455,
      "пом": 2456,
      "пост": 2457,
      "покры": 2458,
      "послыш": 2459,
      "показы": 2460,
      "речи": 2461,
      "рительно": 2462,
      "жению": 2463,
      "забо": 2464,
      "дому": 2465,
      "чек": 2466,
      "мою": 2467,
      "такая": 2468,
      "руках": 2469,
      "скажет": 2470,
      "диться": 2471,
      "сидела": 2472,
      "разви": 2473,
      "Левиным": 2474,
      "всту": 2475,
      "пил": 2476,
      "тельный": 2477,
      "пуска": 2478,
      "странно": 2479,
      "влека": 2480,
      "первую": 2481,
      "ятно": 2482,
      "слабо": 2483,
      "встреча": 2484,
      "трудом": 2485,
      "взять": 2486,
      "взяла": 2487,
      "молчал": 2488,
      "елый": 2489,
      "счастлива": 2490,
      "клады": 2491,
      "корми": 2492,
      "гостиной": 2493,
      "помощ": 2494,
      "нарочно": 2495,
      "спрашивал": 2496,
      "существо": 2497,
      "истори": 2498,
      "случилось": 2499,
      "влек": 2500,
      "клу": 2501,
      "уте": 2502,
      "тобой": 2503,
      "наш": 2504,
      "неожида": 2505,
      "подоб": 2506,
      "почувствовала": 2507,
      "нице": 2508,
      "видал": 2509,
      "жени": 2510,
      "доволен": 2511,
      "чение": 2512,
      "честь": 2513,
      "чения": 2514,
      "мир": 2515,
      "тан": 2516,
      "бежал": 2517,
      "петер": 2518,
      "нять": 2519,
      "мах": 2520,
      "делу": 2521,
      "силы": 2522,
      "разо": 2523,
      "тело": 2524,
      "тур": 2525,
      "туда": 2526,
      "щими": 2527,
      "дыха": 2528,
      "пута": 2529,
      "слушать": 2530,
      "ответил": 2531,
      "останавли": 2532,
      "Несмотря": 2533,
      "взгляды": 2534,
      "плат": 2535,
      "женщин": 2536,
      "вопросы": 2537,
      "княгини": 2538,
      "знакоми": 2539,
      "крикнул": 2540,
      "священ": 2541,
      "удовольствие": 2542,
      "спать": 2543,
      "шляпу": 2544,
      "торже": 2545,
      "влия": 2546,
      "церк": 2547,
      "России": 2548,
      "Голенищев": 2549,
      "солнце": 2550,
      "искус": 2551,
      "деревню": 2552,
      "рублей": 2553,
      "смерть": 2554,
      "ждать": 2555,
      "идет": 2556,
      "клю": 2557,
      "кнула": 2558,
      "чное": 2559,
      "непри": 2560,
      "ног": 2561,
      "пот": 2562,
      "никого": 2563,
      "вече": 2564,
      "четы": 2565,
      "пени": 2566,
      "мане": 2567,
      "тыми": 2568,
      "щем": 2569,
      "гим": 2570,
      "бами": 2571,
      "мнение": 2572,
      "харак": 2573,
      "чувствовать": 2574,
      "возмо": 2575,
      "грани": 2576,
      "улыбка": 2577,
      "улыбку": 2578,
      "вшею": 2579,
      "заметно": 2580,
      "выйти": 2581,
      "подоз": 2582,
      "остановилась": 2583,
      "грудь": 2584,
      "глуби": 2585,
      "верил": 2586,
      "самый": 2587,
      "велико": 2588,
      "спаль": 2589,
      "совестно": 2590,
      "видимо": 2591,
      "счастья": 2592,
      "Петриц": 2593,
      "кабине": 2594,
      "старый": 2595,
      "вставая": 2596,
      "располо": 2597,
      "представить": 2598,
      "целу": 2599,
      "жку": 2600,
      "жным": 2601,
      "зе": 2602,
      "нство": 2603,
      "пала": 2604,
      "сон": 2605,
      "поним": 2606,
      "нику": 2607,
      "воро": 2608,
      "рок": 2609,
      "ревно": 2610,
      "жений": 2611,
      "лес": 2612,
      "дама": 2613,
      "меш": 2614,
      "моей": 2615,
      "выго": 2616,
      "прошло": 2617,
      "прошед": 2618,
      "дила": 2619,
      "нял": 2620,
      "шеп": 2621,
      "шему": 2622,
      "чаю": 2623,
      "хода": 2624,
      "будем": 2625,
      "встве": 2626,
      "пиро": 2627,
      "хороша": 2628,
      "человеку": 2629,
      "дался": 2630,
      "понятия": 2631,
      "первое": 2632,
      "другом": 2633,
      "минут": 2634,
      "встрети": 2635,
      "решил": 2636,
      "стыдно": 2637,
      "удивля": 2638,
      "волнова": 2639,
      "Петро": 2640,
      "внимание": 2641,
      "распоря": 2642,
      "условия": 2643,
      "духе": 2644,
      "далеко": 2645,
      "aman": 2646,
      "петербург": 2647,
      "церкви": 2648,
      "XV": 2649,
      "ar": 2650,
      "Анной": 2651,
      "Где": 2652,
      "адвока": 2653,
      "вс": 2654,
      "гри": 2655,
      "зво": 2656,
      "нского": 2657,
      "сцо": 2658,
      "ума": 2659,
      "уехал": 2660,
      "хле": 2661,
      "чной": 2662,
      "ый": 2663,
      "явле": 2664,
      "наблю": 2665,
      "носи": 2666,
      "поправи": 2667,
      "поеду": 2668,
      "вопроси": 2669,
      "жей": 2670,
      "дова": 2671,
      "вычай": 2672,
      "проговорила": 2673,
      "придет": 2674,
      "пришел": 2675,
      "принима": 2676,
      "значит": 2677,
      "телей": 2678,
      "бир": 2679,
      "предме": 2680,
      "Пожал": 2681,
      "слуша": 2682,
      "строй": 2683,
      "граф": 2684,
      "тяжел": 2685,
      "ктор": 2686,
      "взгляда": 2687,
      "одни": 2688,
      "понимать": 2689,
      "радостно": 2690,
      "вместо": 2691,
      "желала": 2692,
      "движения": 2693,
      "вражде": 2694,
      "хозяйстве": 2695,
      "Свияжского": 2696,
      "громко": 2697,
      "вшихся": 2698,
      "ожидая": 2699,
      "писала": 2700,
      "силах": 2701,
      "увере": 2702,
      "французски": 2703,
      "чрезвычай": 2704,
      "приготовле": 2705,
      "работать": 2706,
      "Хоро": 2707,
      "посл": 2708,
      "отец": 2709,
      "хорошень": 2710,
      "Кто": 2711,
      "вро": 2712,
      "жные": 2713,
      "йдем": 2714,
      "опа": 2715,
      "утром": 2716,
      "цель": 2717,
      "нечего": 2718,
      "поги": 2719,
      "покор": 2720,
      "нила": 2721,
      "рин": 2722,
      "бывало": 2723,
      "лиш": 2724,
      "жесто": 2725,
      "дай": 2726,
      "тесь": 2727,
      "тах": 2728,
      "прибли": 2729,
      "приехали": 2730,
      "ман": 2731,
      "куп": 2732,
      "разум": 2733,
      "разумеется": 2734,
      "ниях": 2735,
      "переди": 2736,
      "стояли": 2737,
      "треть": 2738,
      "думает": 2739,
      "смеясь": 2740,
      "Васили": 2741,
      "дорогу": 2742,
      "вшем": 2743,
      "ставить": 2744,
      "ближе": 2745,
      "мужик": 2746,
      "хочется": 2747,
      "ребенок": 2748,
      "убеди": 2749,
      "Агафь": 2750,
      "деятельности": 2751,
      "насмешли": 2752,
      "медленно": 2753,
      "здоровье": 2754,
      "нахмури": 2755,
      "XI": 2756,
      "ie": 2757,
      "ne": 2758,
      "Его": 2759,
      "дре": 2760,
      "кли": 2761,
      "мель": 2762,
      "узнала": 2763,
      "целый": 2764,
      "наз": 2765,
      "нали": 2766,
      "независи": 2767,
      "непременно": 2768,
      "новых": 2769,
      "госуда": 2770,
      "поступи": 2771,
      "познакоми": 2772,
      "коф": 2773,
      "ники": 2774,
      "вообще": 2775,
      "заку": 2776,
      "доста": 2777,
      "отри": 2778,
      "мини": 2779,
      "рука": 2780,
      "прине": 2781,
      "прили": 2782,
      "привез": 2783,
      "чаще": 2784,
      "деля": 2785,
      "знали": 2786,
      "развода": 2787,
      "говор": 2788,
      "преста": 2789,
      "прекра": 2790,
      "тых": 2791,
      "рядом": 2792,
      "спокое": 2793,
      "чувствую": 2794,
      "дрожа": 2795,
      "Александровне": 2796,
      "слушая": 2797,
      "ответа": 2798,
      "ально": 2799,
      "нется": 2800,
      "весел": 2801,
      "заметив": 2802,
      "выражения": 2803,
      "жизнью": 2804,
      "пустить": 2805,
      "оглянулся": 2806,
      "нравстве": 2807,
      "and": 2808,
      "виноват": 2809,
      "виновата": 2810,
      "нового": 2811,
      "нерги": 2812,
      "полага": 2813,
      "торопи": 2814,
      "отыски": 2815,
      "лакей": 2816,
      "прислуши": 2817,
      "Ны": 2818,
      "Чу": 2819,
      "ак": 2820,
      "гне": 2821,
      "зла": 2822,
      "мпа": 2823,
      "нку": 2824,
      "сра": 2825,
      "умира": 2826,
      "шле": 2827,
      "шкой": 2828,
      "энерги": 2829,
      "тоном": 2830,
      "несчасти": 2831,
      "поко": 2832,
      "пове": 2833,
      "повер": 2834,
      "конец": 2835,
      "кать": 2836,
      "роди": 2837,
      "вину": 2838,
      "лоти": 2839,
      "лосо": 2840,
      "сея": 2841,
      "женою": 2842,
      "дого": 2843,
      "дожи": 2844,
      "менее": 2845,
      "мом": 2846,
      "румя": 2847,
      "собы": 2848,
      "прими": 2849,
      "пригла": 2850,
      "дут": 2851,
      "шею": 2852,
      "маши": 2853,
      "живу": 2854,
      "папа": 2855,
      "говоришь": 2856,
      "дья": 2857,
      "верху": 2858,
      "бары": 2859,
      "щим": 2860,
      "делает": 2861,
      "предстоя": 2862,
      "тельное": 2863,
      "имела": 2864,
      "скла": 2865,
      "стояла": 2866,
      "человеком": 2867,
      "исче": 2868,
      "кончено": 2869,
      "филосо": 2870,
      "одним": 2871,
      "таких": 2872,
      "радость": 2873,
      "увиди": 2874,
      "Дарье": 2875,
      "слышала": 2876,
      "отношении": 2877,
      "готов": 2878,
      "мысля": 2879,
      "самым": 2880,
      "сердито": 2881,
      "пальто": 2882,
      "обманы": 2883,
      "внутрен": 2884,
      "началь": 2885,
      "Ласка": 2886,
      "случае": 2887,
      "вследствие": 2888,
      "воспита": 2889,
      "Песцо": 2890,
      "престанно": 2891,
      "te": 2892,
      "Пи": 2893,
      "Пер": 2894,
      "Твер": 2895,
      "Хот": 2896,
      "вгляды": 2897,
      "гну": 2898,
      "нки": 2899,
      "около": 2900,
      "пья": 2901,
      "сва": 2902,
      "сот": 2903,
      "тка": 2904,
      "тря": 2905,
      "утра": 2906,
      "хло": 2907,
      "чный": 2908,
      "чками": 2909,
      "чок": 2910,
      "шко": 2911,
      "наи": 2912,
      "наме": 2913,
      "насла": 2914,
      "ногу": 2915,
      "новый": 2916,
      "новые": 2917,
      "голу": 2918,
      "пошли": 2919,
      "порази": 2920,
      "видя": 2921,
      "ласко": 2922,
      "вавший": 2923,
      "зами": 2924,
      "дает": 2925,
      "дев": 2926,
      "ческое": 2927,
      "меч": 2928,
      "таком": 2929,
      "дили": 2930,
      "приехать": 2931,
      "приедет": 2932,
      "всему": 2933,
      "шить": 2934,
      "жили": 2935,
      "обла": 2936,
      "значительно": 2937,
      "еем": 2938,
      "щею": 2939,
      "извоз": 2940,
      "поднима": 2941,
      "дной": 2942,
      "шаги": 2943,
      "щий": 2944,
      "дым": 2945,
      "большую": 2946,
      "Под": 2947,
      "Поло": 2948,
      "сын": 2949,
      "просил": 2950,
      "степени": 2951,
      "цом": 2952,
      "ственное": 2953,
      "Костя": 2954,
      "заметила": 2955,
      "ехав": 2956,
      "труда": 2957,
      "ожидал": 2958,
      "никакой": 2959,
      "желание": 2960,
      "общество": 2961,
      "Мат": 2962,
      "хозяйства": 2963,
      "станции": 2964,
      "спал": 2965,
      "находил": 2966,
      "помочь": 2967,
      "сильно": 2968,
      "удовольствием": 2969,
      "окно": 2970,
      "народа": 2971,
      "Лидии": 2972,
      "извести": 2973,
      "простить": 2974,
      "принять": 2975,
      "платья": 2976,
      "Тут": 2977,
      "позволи": 2978,
      "узнав": 2979,
      "христи": 2980,
      "ce": 2981,
      "Впрочем": 2982,
      "Гра": 2983,
      "Опять": 2984,
      "Ре": 2985,
      "Че": 2986,
      "гло": 2987,
      "жный": 2988,
      "ждала": 2989,
      "ил": 2990,
      "многи": 2991,
      "пч": 2992,
      "пры": 2993,
      "рд": 2994,
      "умы": 2995,
      "ям": 2996,
      "нении": 2997,
      "непоня": 2998,
      "новым": 2999,
      "коль": 3000,
      "ванья": 3001,
      "доло": 3002,
      "доставля": 3003,
      "муча": 3004,
      "моли": 3005,
      "москов": 3006,
      "тившись": 3007,
      "руке": 3008,
      "сообщи": 3009,
      "собира": 3010,
      "прошу": 3011,
      "проща": 3012,
      "душу": 3013,
      "душно": 3014,
      "боя": 3015,
      "борь": 3016,
      "няла": 3017,
      "шет": 3018,
      "знамени": 3019,
      "цати": 3020,
      "малей": 3021,
      "мяг": 3022,
      "третий": 3023,
      "улыбнулась": 3024,
      "света": 3025,
      "сказано": 3026,
      "Варва": 3027,
      "спросить": 3028,
      "желания": 3029,
      "вопроса": 3030,
      "стороне": 3031,
      "относи": 3032,
      "всякого": 3033,
      "объяви": 3034,
      "связи": 3035,
      "пустил": 3036,
      "сомнения": 3037,
      "краснея": 3038,
      "большое": 3039,
      "книгу": 3040,
      "устрой": 3041,
      "девушка": 3042,
      "карто": 3043,
      "мальчи": 3044,
      "господи": 3045,
      "рабочи": 3046,
      "услови": 3047,
      "притворя": 3048,
      "офице": 3049,
      "Марья": 3050,
      "услыхал": 3051,
      "несомненно": 3052,
      "денег": 3053,
      "Дру": 3054,
      "един": 3055,
      "ква": 3056,
      "кет": 3057,
      "мел": 3058,
      "осу": 3059,
      "уль": 3060,
      "участи": 3061,
      "чало": 3062,
      "явля": 3063,
      "стру": 3064,
      "поли": 3065,
      "поедем": 3066,
      "воли": 3067,
      "вае": 3068,
      "ваешь": 3069,
      "сестры": 3070,
      "дое": 3071,
      "док": 3072,
      "дами": 3073,
      "девя": 3074,
      "чисто": 3075,
      "своя": 3076,
      "телем": 3077,
      "жав": 3078,
      "жной": 3079,
      "Аркадьевна": 3080,
      "просия": 3081,
      "одному": 3082,
      "сказав": 3083,
      "конце": 3084,
      "взглянула": 3085,
      "самому": 3086,
      "твое": 3087,
      "словами": 3088,
      "увидала": 3089,
      "двадцать": 3090,
      "производи": 3091,
      "оскорбле": 3092,
      "беспрестанно": 3093,
      "Боже": 3094,
      "телеграм": 3095,
      "звук": 3096,
      "вшееся": 3097,
      "воспоминания": 3098,
      "перебил": 3099,
      "Катавасо": 3100,
      "рассказывать": 3101,
      "est": 3102,
      "карету": 3103,
      "девочка": 3104,
      "крайней": 3105,
      "вскрикнул": 3106,
      "противополо": 3107,
      "швейцар": 3108,
      "вопросительно": 3109,
      "Василий": 3110,
      "Нынче": 3111,
      "maman": 3112,
      "Ба": 3113,
      "Ль": 3114,
      "Мет": 3115,
      "Оста": 3116,
      "дни": 3117,
      "зет": 3118,
      "мле": 3119,
      "опоз": 3120,
      "тали": 3121,
      "углу": 3122,
      "утро": 3123,
      "чные": 3124,
      "необыкнове": 3125,
      "стрел": 3126,
      "рение": 3127,
      "рина": 3128,
      "вав": 3129,
      "секу": 3130,
      "жете": 3131,
      "заклю": 3132,
      "чен": 3133,
      "музы": 3134,
      "мен": 3135,
      "мои": 3136,
      "выда": 3137,
      "скать": 3138,
      "няня": 3139,
      "сите": 3140,
      "разно": 3141,
      "скочил": 3142,
      "любя": 3143,
      "чужо": 3144,
      "подъ": 3145,
      "жаю": 3146,
      "рассказал": 3147,
      "гувер": 3148,
      "больной": 3149,
      "больного": 3150,
      "отвечая": 3151,
      "просила": 3152,
      "трех": 3153,
      "границу": 3154,
      "полков": 3155,
      "решить": 3156,
      "ужасом": 3157,
      "общества": 3158,
      "внеш": 3159,
      "последний": 3160,
      "мысл": 3161,
      "однако": 3162,
      "Гово": 3163,
      "Москвы": 3164,
      "произо": 3165,
      "читать": 3166,
      "видит": 3167,
      "сердца": 3168,
      "вшаяся": 3169,
      "занятия": 3170,
      "десять": 3171,
      "любовью": 3172,
      "внимания": 3173,
      "согласен": 3174,
      "вниз": 3175,
      "Петербург": 3176,
      "вшуюся": 3177,
      "решение": 3178,
      "Щербацких": 3179,
      "залу": 3180,
      "притвор": 3181,
      "приготови": 3182,
      "умоля": 3183,
      "Прав": 3184,
      "четыре": 3185,
      "Льво": 3186,
      "секун": 3187,
      "Фили": 3188,
      "впереди": 3189,
      "зны": 3190,
      "окон": 3191,
      "ощу": 3192,
      "смысл": 3193,
      "ушел": 3194,
      "фо": 3195,
      "фу": 3196,
      "хла": 3197,
      "чная": 3198,
      "эки": 3199,
      "гостей": 3200,
      "пору": 3201,
      "поговорить": 3202,
      "посмотрела": 3203,
      "кан": 3204,
      "водя": 3205,
      "ворот": 3206,
      "восемь": 3207,
      "вокруг": 3208,
      "рам": 3209,
      "вина": 3210,
      "видом": 3211,
      "лише": 3212,
      "жер": 3213,
      "зада": 3214,
      "защи": 3215,
      "забыть": 3216,
      "заговорила": 3217,
      "лежа": 3218,
      "теа": 3219,
      "ческой": 3220,
      "мец": 3221,
      "моего": 3222,
      "тай": 3223,
      "составля": 3224,
      "проводи": 3225,
      "прин": 3226,
      "боялся": 3227,
      "шепотом": 3228,
      "чами": 3229,
      "купа": 3230,
      "общего": 3231,
      "знают": 3232,
      "евич": 3233,
      "подходя": 3234,
      "жай": 3235,
      "тельна": 3236,
      "спосо": 3237,
      "шагом": 3238,
      "вшимися": 3239,
      "слез": 3240,
      "хотели": 3241,
      "взволнова": 3242,
      "большие": 3243,
      "вновь": 3244,
      "возра": 3245,
      "сыпа": 3246,
      "думая": 3247,
      "князя": 3248,
      "ствен": 3249,
      "слышать": 3250,
      "слав": 3251,
      "разговоре": 3252,
      "княгине": 3253,
      "получил": 3254,
      "стями": 3255,
      "пойдем": 3256,
      "графини": 3257,
      "самых": 3258,
      "землю": 3259,
      "терпе": 3260,
      "волнение": 3261,
      "редко": 3262,
      "Облонского": 3263,
      "видишь": 3264,
      "испытывала": 3265,
      "высоко": 3266,
      "знакомые": 3267,
      "Боль": 3268,
      "подавая": 3269,
      "можете": 3270,
      "приятель": 3271,
      "позволя": 3272,
      "помещик": 3273,
      "остался": 3274,
      "досадно": 3275,
      "оставить": 3276,
      "молодые": 3277,
      "фессо": 3278,
      "тороп": 3279,
      "скажите": 3280,
      "вероятно": 3281,
      "мгновение": 3282,
      "Иваныч": 3283,
      "обещал": 3284,
      "Хорошо": 3285,
      "экипа": 3286,
      "ma": 3287,
      "Один": 3288,
      "Слу": 3289,
      "Уви": 3290,
      "Хри": 3291,
      "блу": 3292,
      "зеле": 3293,
      "нке": 3294,
      "опомни": 3295,
      "пь": 3296,
      "праз": 3297,
      "рали": 3298,
      "сс": 3299,
      "ске": 3300,
      "смысле": 3301,
      "сзади": 3302,
      "уло": 3303,
      "уми": 3304,
      "уга": 3305,
      "увели": 3306,
      "хму": 3307,
      "шк": 3308,
      "шке": 3309,
      "ность": 3310,
      "новую": 3311,
      "поми": 3312,
      "показать": 3313,
      "нисколько": 3314,
      "никому": 3315,
      "воде": 3316,
      "рова": 3317,
      "раска": 3318,
      "вар": 3319,
      "затруд": 3320,
      "досто": 3321,
      "дость": 3322,
      "тени": 3323,
      "чей": 3324,
      "четвер": 3325,
      "мучи": 3326,
      "таин": 3327,
      "просты": 3328,
      "бед": 3329,
      "бежала": 3330,
      "пей": 3331,
      "часть": 3332,
      "кур": 3333,
      "чиво": 3334,
      "разби": 3335,
      "будешь": 3336,
      "пар": 3337,
      "лым": 3338,
      "гивая": 3339,
      "бить": 3340,
      "дного": 3341,
      "глядел": 3342,
      "хая": 3343,
      "страх": 3344,
      "пяти": 3345,
      "влетво": 3346,
      "Этот": 3347,
      "имею": 3348,
      "обед": 3349,
      "етесь": 3350,
      "особенное": 3351,
      "поздно": 3352,
      "радостью": 3353,
      "сюрту": 3354,
      "Лизаве": 3355,
      "отношение": 3356,
      "крик": 3357,
      "связа": 3358,
      "пойду": 3359,
      "мужиков": 3360,
      "Воз": 3361,
      "самая": 3362,
      "поднял": 3363,
      "волнения": 3364,
      "матерью": 3365,
      "состоянии": 3366,
      "броси": 3367,
      "высокий": 3368,
      "Петр": 3369,
      "XXV": 3370,
      "знакомых": 3371,
      "хвати": 3372,
      "значения": 3373,
      "вшейся": 3374,
      "искре": 3375,
      "покраснел": 3376,
      "покраснела": 3377,
      "англий": 3378,
      "оглядывая": 3379,
      "Было": 3380,
      "презрительно": 3381,
      "переставая": 3382,
      "удовлетво": 3383,
      "поклонился": 3384,
      "презира": 3385,
      "вечером": 3386,
      "Петрицкий": 3387,
      "вглядываясь": 3388,
      "as": 3389,
      "Бе": 3390,
      "Без": 3391,
      "Мяг": 3392,
      "Пере": 3393,
      "Ско": 3394,
      "гка": 3395,
      "едешь": 3396,
      "жалось": 3397,
      "игру": 3398,
      "пти": 3399,
      "уз": 3400,
      "упор": 3401,
      "щет": 3402,
      "наг": 3403,
      "нару": 3404,
      "настрое": 3405,
      "пок": 3406,
      "посе": 3407,
      "пожимая": 3408,
      "ните": 3409,
      "какою": 3410,
      "рано": 3411,
      "реб": 3412,
      "рилась": 3413,
      "лоб": 3414,
      "лой": 3415,
      "лиц": 3416,
      "затих": 3417,
      "давал": 3418,
      "дамы": 3419,
      "тен": 3420,
      "дения": 3421,
      "ческого": 3422,
      "муче": 3423,
      "профессо": 3424,
      "принад": 3425,
      "шения": 3426,
      "хожу": 3427,
      "став": 3428,
      "делала": 3429,
      "стон": 3430,
      "скою": 3431,
      "людя": 3432,
      "памя": 3433,
      "рясь": 3434,
      "подал": 3435,
      "поддержи": 3436,
      "туал": 3437,
      "тельные": 3438,
      "вернулась": 3439,
      "вернувшись": 3440,
      "версите": 3441,
      "щика": 3442,
      "следо": 3443,
      "слегка": 3444,
      "малый": 3445,
      "чувством": 3446,
      "Пойдем": 3447,
      "этими": 3448,
      "Степану": 3449,
      "Аркадьичу": 3450,
      "шой": 3451,
      "вяз": 3452,
      "первой": 3453,
      "замет": 3454,
      "хозяин": 3455,
      "второй": 3456,
      "цию": 3457,
      "отношений": 3458,
      "читала": 3459,
      "мужики": 3460,
      "вспомнить": 3461,
      "письма": 3462,
      "возможности": 3463,
      "худож": 3464,
      "смотрели": 3465,
      "пальцами": 3466,
      "Тушк": 3467,
      "волос": 3468,
      "горячи": 3469,
      "покраснев": 3470,
      "учре": 3471,
      "удивлением": 3472,
      "восхи": 3473,
      "движением": 3474,
      "вспоминал": 3475,
      "прочел": 3476,
      "комиссии": 3477,
      "дочери": 3478,
      "религии": 3479,
      "садясь": 3480,
      "крепко": 3481,
      "Серпуховской": 3482,
      "помощь": 3483,
      "священник": 3484,
      "целуя": 3485,
      "понимала": 3486,
      "вспы": 3487,
      "Чувст": 3488,
      "Хотя": 3489,
      "способно": 3490,
      "Land": 3491,
      "et": 3492,
      "Стре": 3493,
      "ен": 3494,
      "ждали": 3495,
      "пля": 3496,
      "плу": 3497,
      "удоб": 3498,
      "уехать": 3499,
      "эле": 3500,
      "наше": 3501,
      "напол": 3502,
      "нант": 3503,
      "начать": 3504,
      "незаметно": 3505,
      "новая": 3506,
      "коно": 3507,
      "кова": 3508,
      "кома": 3509,
      "камер": 3510,
      "раская": 3511,
      "виз": 3512,
      "задум": 3513,
      "засмея": 3514,
      "лето": 3515,
      "дога": 3516,
      "доказы": 3517,
      "тера": 3518,
      "мов": 3519,
      "миро": 3520,
      "выходя": 3521,
      "нули": 3522,
      "прошеп": 3523,
      "пришла": 3524,
      "бека": 3525,
      "бесед": 3526,
      "дую": 3527,
      "бом": 3528,
      "бор": 3529,
      "мадам": 3530,
      "живет": 3531,
      "столе": 3532,
      "обви": 3533,
      "сих": 3534,
      "рял": 3535,
      "жает": 3536,
      "гиба": 3537,
      "писы": 3538,
      "тельная": 3539,
      "друж": 3540,
      "шагов": 3541,
      "передал": 3542,
      "делая": 3543,
      "дрог": 3544,
      "Норд": 3545,
      "мнения": 3546,
      "пуская": 3547,
      "слови": 3548,
      "смело": 3549,
      "казались": 3550,
      "Алексеем": 3551,
      "служе": 3552,
      "странное": 3553,
      "сыном": 3554,
      "взгляде": 3555,
      "слыха": 3556,
      "Сергею": 3557,
      "Никто": 3558,
      "немного": 3559,
      "желать": 3560,
      "хозяина": 3561,
      "думали": 3562,
      "довольно": 3563,
      "сделали": 3564,
      "совето": 3565,
      "повторила": 3566,
      "уйти": 3567,
      "спасе": 3568,
      "университе": 3569,
      "слушала": 3570,
      "собр": 3571,
      "белые": 3572,
      "фигуру": 3573,
      "коляску": 3574,
      "деятельность": 3575,
      "поворачи": 3576,
      "напряже": 3577,
      "Однако": 3578,
      "похоже": 3579,
      "службе": 3580,
      "угодно": 3581,
      "робко": 3582,
      "постоянно": 3583,
      "гимна": 3584,
      "границей": 3585,
      "чрезвычайно": 3586,
      "полити": 3587,
      "зныше": 3588,
      "Увидав": 3589,
      "Landau": 3590,
      "команди": 3591,
      "Нордстон": 3592,
      "co": 3593,
      "Поче": 3594,
      "Ря": 3595,
      "Ужа": 3596,
      "Фе": 3597,
      "бре": 3598,
      "бель": 3599,
      "ек": 3600,
      "едва": 3601,
      "жке": 3602,
      "озабо": 3603,
      "рку": 3604,
      "сходи": 3605,
      "сбли": 3606,
      "язы": 3607,
      "тора": 3608,
      "нау": 3609,
      "нача": 3610,
      "неви": 3611,
      "ногами": 3612,
      "стри": 3613,
      "ствую": 3614,
      "поря": 3615,
      "посы": 3616,
      "покро": 3617,
      "ковой": 3618,
      "нина": 3619,
      "ката": 3620,
      "какого": 3621,
      "ровать": 3622,
      "раза": 3623,
      "рей": 3624,
      "виду": 3625,
      "рили": 3626,
      "вашего": 3627,
      "вайте": 3628,
      "зато": 3629,
      "запа": 3630,
      "задумал": 3631,
      "давая": 3632,
      "тии": 3633,
      "ружь": 3634,
      "сожал": 3635,
      "прово": 3636,
      "диа": 3637,
      "приз": 3638,
      "бок": 3639,
      "боже": 3640,
      "мама": 3641,
      "матри": 3642,
      "стои": 3643,
      "разру": 3644,
      "нька": 3645,
      "препят": 3646,
      "тывать": 3647,
      "изменя": 3648,
      "мые": 3649,
      "подчи": 3650,
      "поднимая": 3651,
      "другая": 3652,
      "вшими": 3653,
      "Александровны": 3654,
      "представле": 3655,
      "слове": 3656,
      "смяг": 3657,
      "Поз": 3658,
      "сквозь": 3659,
      "страи": 3660,
      "страст": 3661,
      "головы": 3662,
      "стен": 3663,
      "любишь": 3664,
      "хорош": 3665,
      "одною": 3666,
      "поняв": 3667,
      "перчат": 3668,
      "первых": 3669,
      "дороге": 3670,
      "дорогой": 3671,
      "Козныше": 3672,
      "женщину": 3673,
      "правду": 3674,
      "Дарьи": 3675,
      "спокойствие": 3676,
      "умел": 3677,
      "поднялся": 3678,
      "каждом": 3679,
      "шедшего": 3680,
      "кончил": 3681,
      "сильнее": 3682,
      "спрашивать": 3683,
      "знакомым": 3684,
      "охотно": 3685,
      "искал": 3686,
      "телен": 3687,
      "образования": 3688,
      "звуки": 3689,
      "волосы": 3690,
      "девушки": 3691,
      "усилия": 3692,
      "Кузь": 3693,
      "спуская": 3694,
      "поцеловал": 3695,
      "ющиеся": 3696,
      "партии": 3697,
      "меньше": 3698,
      "милая": 3699,
      "портрет": 3700,
      "восторже": 3701,
      "середине": 3702,
      "дожида": 3703,
      "Матвей": 3704,
      "Правда": 3705,
      "достоин": 3706,
      "задумался": 3707,
      "Бра": 3708,
      "Эти": 3709,
      "Эта": 3710,
      "дало": 3711,
      "дней": 3712,
      "жды": 3713,
      "кле": 3714,
      "мся": 3715,
      "ого": 3716,
      "сре": 3717,
      "смы": 3718,
      "сель": 3719,
      "среди": 3720,
      "уны": 3721,
      "уха": 3722,
      "утвер": 3723,
      "установи": 3724,
      "чте": 3725,
      "чную": 3726,
      "шлю": 3727,
      "нек": 3728,
      "несе": 3729,
      "невозмо": 3730,
      "поэтому": 3731,
      "нив": 3732,
      "сестра": 3733,
      "женить": 3734,
      "затем": 3735,
      "заседа": 3736,
      "ческих": 3737,
      "милый": 3738,
      "такою": 3739,
      "высказать": 3740,
      "вызы": 3741,
      "высказы": 3742,
      "рук": 3743,
      "собра": 3744,
      "прода": 3745,
      "пробо": 3746,
      "приме": 3747,
      "привлека": 3748,
      "шесть": 3749,
      "стару": 3750,
      "старой": 3751,
      "какую": 3752,
      "кучера": 3753,
      "обна": 3754,
      "разор": 3755,
      "превос": 3756,
      "жар": 3757,
      "пишет": 3758,
      "тельны": 3759,
      "делают": 3760,
      "делается": 3761,
      "Даже": 3762,
      "пух": 3763,
      "супру": 3764,
      "Какая": 3765,
      "имя": 3766,
      "скло": 3767,
      "княжна": 3768,
      "ствии": 3769,
      "вольте": 3770,
      "имеют": 3771,
      "дверях": 3772,
      "понимая": 3773,
      "соверши": 3774,
      "твоя": 3775,
      "стыд": 3776,
      "стыда": 3777,
      "никаких": 3778,
      "желает": 3779,
      "правды": 3780,
      "умер": 3781,
      "близо": 3782,
      "казаться": 3783,
      "последние": 3784,
      "связь": 3785,
      "пойми": 3786,
      "душев": 3787,
      "плечи": 3788,
      "мужика": 3789,
      "ровцы": 3790,
      "волно": 3791,
      "редка": 3792,
      "открыл": 3793,
      "ходят": 3794,
      "равнодуши": 3795,
      "совет": 3796,
      "Сережу": 3797,
      "старательно": 3798,
      "помнил": 3799,
      "вчераш": 3800,
      "Туровцы": 3801,
      "тяжелое": 3802,
      "решения": 3803,
      "вшимся": 3804,
      "испуг": 3805,
      "раздражи": 3806,
      "баллоти": 3807,
      "рассказывал": 3808,
      "Ивановичу": 3809,
      "вшемуся": 3810,
      "оглядываясь": 3811,
      "влюблен": 3812,
      "серьезно": 3813,
      "Гладиа": 3814,
      "вскрикнула": 3815,
      "месяца": 3816,
      "вздохнул": 3817,
      "подъезда": 3818,
      "лакея": 3819,
      "одинако": 3820,
      "Пожалуйста": 3821,
      "министер": 3822,
      "полагаю": 3823,
      "свадь": 3824,
      "христиан": 3825,
      "гувернант": 3826,
      "искренно": 3827,
      "принадле": 3828,
      "Почему": 3829,
      "Ряби": 3830,
      "elle": 3831,
      "it": 3832,
      "ri": 3833,
      "ro": 3834,
      "Есть": 3835,
      "бала": 3836,
      "впрочем": 3837,
      "едете": 3838,
      "зон": 3839,
      "зрения": 3840,
      "звез": 3841,
      "исти": 3842,
      "нк": 3843,
      "нника": 3844,
      "пел": 3845,
      "пель": 3846,
      "рна": 3847,
      "съез": 3848,
      "увле": 3849,
      "увидел": 3850,
      "устал": 3851,
      "тое": 3852,
      "направи": 3853,
      "написал": 3854,
      "наверх": 3855,
      "некоторые": 3856,
      "недавно": 3857,
      "неопределе": 3858,
      "неподви": 3859,
      "году": 3860,
      "поро": 3861,
      "поту": 3862,
      "повери": 3863,
      "посторон": 3864,
      "кажете": 3865,
      "розо": 3866,
      "ради": 3867,
      "лом": 3868,
      "локо": 3869,
      "ложи": 3870,
      "важ": 3871,
      "ведет": 3872,
      "заставля": 3873,
      "леса": 3874,
      "отре": 3875,
      "отчасти": 3876,
      "тень": 3877,
      "тилась": 3878,
      "кивая": 3879,
      "прой": 3880,
      "провел": 3881,
      "дива": 3882,
      "этою": 3883,
      "придумы": 3884,
      "бои": 3885,
      "старая": 3886,
      "жите": 3887,
      "обру": 3888,
      "общее": 3889,
      "разговори": 3890,
      "ньше": 3891,
      "щении": 3892,
      "избави": 3893,
      "тела": 3894,
      "будете": 3895,
      "людь": 3896,
      "любез": 3897,
      "ряя": 3898,
      "мым": 3899,
      "лые": 3900,
      "тельных": 3901,
      "тельства": 3902,
      "гам": 3903,
      "шагами": 3904,
      "жность": 3905,
      "раскры": 3906,
      "гуля": 3907,
      "губами": 3908,
      "хотят": 3909,
      "Какое": 3910,
      "больна": 3911,
      "служа": 3912,
      "альное": 3913,
      "хорошее": 3914,
      "трево": 3915,
      "ствий": 3916,
      "Дол": 3917,
      "тяже": 3918,
      "Ивановны": 3919,
      "красно": 3920,
      "блед": 3921,
      "блест": 3922,
      "обеща": 3923,
      "замечал": 3924,
      "ешься": 3925,
      "понимаешь": 3926,
      "решился": 3927,
      "взялся": 3928,
      "правди": 3929,
      "стях": 3930,
      "Махот": 3931,
      "мужчина": 3932,
      "интересу": 3933,
      "всякий": 3934,
      "многое": 3935,
      "Разговор": 3936,
      "равнодуш": 3937,
      "кланя": 3938,
      "зубы": 3939,
      "неприятное": 3940,
      "Николаевна": 3941,
      "прекрасный": 3942,
      "недоуме": 3943,
      "недоволен": 3944,
      "испорти": 3945,
      "книги": 3946,
      "определи": 3947,
      "покачи": 3948,
      "скрыть": 3949,
      "собственно": 3950,
      "перебила": 3951,
      "мальчик": 3952,
      "мальчика": 3953,
      "досадой": 3954,
      "формы": 3955,
      "молодых": 3956,
      "влюблена": 3957,
      "одеваться": 3958,
      "веселый": 3959,
      "приказчи": 3960,
      "возбужде": 3961,
      "Одна": 3962,
      "действовать": 3963,
      "предводитель": 3964,
      "добрый": 3965,
      "Прежде": 3966,
      "гряз": 3967,
      "руководи": 3968,
      "глубине": 3969,
      "кабинете": 3970,
      "государ": 3971,
      "отрица": 3972,
      "спокоен": 3973,
      "Графи": 3974,
      "людьми": 3975,
      "Дело": 3976,
      "Или": 3977,
      "Нель": 3978,
      "Пред": 3979,
      "Уж": 3980,
      "ад": 3981,
      "вло": 3982,
      "вза": 3983,
      "входи": 3984,
      "далась": 3985,
      "рта": 3986,
      "сса": 3987,
      "схва": 3988,
      "снимая": 3989,
      "устало": 3990,
      "устре": 3991,
      "цвет": 3992,
      "чного": 3993,
      "нашла": 3994,
      "нера": 3995,
      "нехорошо": 3996,
      "несправедливо": 3997,
      "немец": 3998,
      "поедет": 3999,
      "постой": 4000,
      "поступ": 4001,
      "попыт": 4002,
      "кол": 4003,
      "ничем": 4004,
      "каф": 4005,
      "визи": 4006,
      "ванье": 4007,
      "везде": 4008,
      "сено": 4009,
      "замол": 4010,
      "закричал": 4011,
      "лета": 4012,
      "отдать": 4013,
      "отлич": 4014,
      "даст": 4015,
      "медве": 4016,
      "мил": 4017,
      "вышли": 4018,
      "скачки": 4019,
      "нуло": 4020,
      "прося": 4021,
      "проце": 4022,
      "приче": 4023,
      "дуэ": 4024,
      "пень": 4025,
      "шем": 4026,
      "шил": 4027,
      "нностью": 4028,
      "знаком": 4029,
      "разры": 4030,
      "изредка": 4031,
      "подхва": 4032,
      "расс": 4033,
      "слезами": 4034,
      "пуще": 4035,
      "сум": 4036,
      "предла": 4037,
      "Какой": 4038,
      "вного": 4039,
      "имели": 4040,
      "ответила": 4041,
      "жением": 4042,
      "смеялся": 4043,
      "тянул": 4044,
      "имени": 4045,
      "блеск": 4046,
      "Никогда": 4047,
      "вьте": 4048,
      "славя": 4049,
      "видели": 4050,
      "стый": 4051,
      "круже": 4052,
      "круга": 4053,
      "Александровичем": 4054,
      "верие": 4055,
      "легче": 4056,
      "Вареньке": 4057,
      "земли": 4058,
      "сделав": 4059,
      "сделаю": 4060,
      "кончится": 4061,
      "здорова": 4062,
      "объяснить": 4063,
      "окна": 4064,
      "XXI": 4065,
      "сердился": 4066,
      "убежде": 4067,
      "шляпе": 4068,
      "устроить": 4069,
      "воспоминание": 4070,
      "впечатления": 4071,
      "старые": 4072,
      "считаю": 4073,
      "усилие": 4074,
      "вздор": 4075,
      "Князь": 4076,
      "называл": 4077,
      "сознание": 4078,
      "блестящими": 4079,
      "заботы": 4080,
      "ющихся": 4081,
      "болезни": 4082,
      "воображении": 4083,
      "вагон": 4084,
      "Михайловны": 4085,
      "предводителя": 4086,
      "пользу": 4087,
      "лестнице": 4088,
      "Корсу": 4089,
      "коридо": 4090,
      "переменить": 4091,
      "успел": 4092,
      "мундире": 4093,
      "зеркало": 4094,
      "быстрым": 4095,
      "послышался": 4096,
      "враждебно": 4097,
      "Агафьи": 4098,
      "несчастие": 4099,
      "участие": 4100,
      "свояче": 4101,
      "людям": 4102,
      "Чувство": 4103,
      "служеб": 4104,
      "слыхав": 4105,
      "Федо": 4106,
      "озабоче": 4107,
      "Графиня": 4108,
      "Нельзя": 4109,
      "se": 4110,
      "ur": 4111,
      "Вся": 4112,
      "Зде": 4113,
      "Муж": 4114,
      "Пу": 4115,
      "Сла": 4116,
      "Уже": 4117,
      "жка": 4118,
      "жалась": 4119,
      "иму": 4120,
      "искать": 4121,
      "нком": 4122,
      "оз": 4123,
      "ору": 4124,
      "пели": 4125,
      "рки": 4126,
      "счет": 4127,
      "твой": 4128,
      "уеди": 4129,
      "фра": 4130,
      "фет": 4131,
      "фаль": 4132,
      "хра": 4133,
      "чных": 4134,
      "шне": 4135,
      "шал": 4136,
      "шту": 4137,
      "щал": 4138,
      "наши": 4139,
      "назначе": 4140,
      "накло": 4141,
      "невы": 4142,
      "нести": 4143,
      "необыкновенно": 4144,
      "нося": 4145,
      "ств": 4146,
      "поса": 4147,
      "поля": 4148,
      "поговори": 4149,
      "посту": 4150,
      "посмотри": 4151,
      "каких": 4152,
      "вому": 4153,
      "роль": 4154,
      "раду": 4155,
      "рии": 4156,
      "лам": 4157,
      "вай": 4158,
      "ведов": 4159,
      "секре": 4160,
      "застал": 4161,
      "лее": 4162,
      "добра": 4163,
      "отка": 4164,
      "дания": 4165,
      "мире": 4166,
      "танце": 4167,
      "выхо": 4168,
      "выходил": 4169,
      "скачек": 4170,
      "нужны": 4171,
      "дит": 4172,
      "пример": 4173,
      "боли": 4174,
      "няли": 4175,
      "самую": 4176,
      "чает": 4177,
      "стаи": 4178,
      "стая": 4179,
      "стати": 4180,
      "жит": 4181,
      "живое": 4182,
      "купить": 4183,
      "стов": 4184,
      "обстоя": 4185,
      "сиде": 4186,
      "сига": 4187,
      "сидели": 4188,
      "чинов": 4189,
      "ньем": 4190,
      "преступ": 4191,
      "преиму": 4192,
      "скочи": 4193,
      "щением": 4194,
      "изу": 4195,
      "папиро": 4196,
      "рят": 4197,
      "мый": 4198,
      "тельнее": 4199,
      "газет": 4200,
      "способ": 4201,
      "верю": 4202,
      "дружел": 4203,
      "расхо": 4204,
      "казался": 4205,
      "ездил": 4206,
      "воздухе": 4207,
      "смотре": 4208,
      "случай": 4209,
      "цепи": 4210,
      "Степаном": 4211,
      "Аркадьичем": 4212,
      "отвечать": 4213,
      "оставаться": 4214,
      "любили": 4215,
      "хороший": 4216,
      "требу": 4217,
      "улыбался": 4218,
      "ственная": 4219,
      "свеже": 4220,
      "особенным": 4221,
      "обеими": 4222,
      "другою": 4223,
      "Сергеем": 4224,
      "ющимися": 4225,
      "Там": 4226,
      "ожидала": 4227,
      "желаю": 4228,
      "словах": 4229,
      "ужаса": 4230,
      "спокойствия": 4231,
      "дворе": 4232,
      "получе": 4233,
      "получить": 4234,
      "золо": 4235,
      "интересно": 4236,
      "кресло": 4237,
      "готови": 4238,
      "плечо": 4239,
      "мужиками": 4240,
      "Вообще": 4241,
      "письме": 4242,
      "деревен": 4243,
      "Вареньку": 4244,
      "подняла": 4245,
      "доктором": 4246,
      "Николая": 4247,
      "надежда": 4248,
      "старика": 4249,
      "объяснения": 4250,
      "доброволь": 4251,
      "десят": 4252,
      "жалости": 4253,
      "маленькую": 4254,
      "привычке": 4255,
      "знакомый": 4256,
      "евны": 4257,
      "плохо": 4258,
      "унизи": 4259,
      "свободы": 4260,
      "церко": 4261,
      "волосами": 4262,
      "приезда": 4263,
      "Щербацкий": 4264,
      "убил": 4265,
      "молодым": 4266,
      "емые": 4267,
      "веселым": 4268,
      "успокоить": 4269,
      "вагона": 4270,
      "присутствие": 4271,
      "сударь": 4272,
      "удивительно": 4273,
      "месяц": 4274,
      "средство": 4275,
      "соображения": 4276,
      "основа": 4277,
      "успела": 4278,
      "столом": 4279,
      "одино": 4280,
      "ужина": 4281,
      "употребля": 4282,
      "помню": 4283,
      "неожиданно": 4284,
      "подобное": 4285,
      "разоча": 4286,
      "великодуши": 4287,
      "спальню": 4288,
      "расположении": 4289,
      "условиях": 4290,
      "принимать": 4291,
      "прислушиваясь": 4292,
      "многие": 4293,
      "непонят": 4294,
      "Варвара": 4295,
      "умиле": 4296,
      "Сколько": 4297,
      "прошептала": 4298,
      "ухажи": 4299,
      "Здесь": 4300,
      "дружелю": 4301,
      "qu": 4302,
      "Ду": 4303,
      "Евро": 4304,
      "Лу": 4305,
      "Се": 4306,
      "Ти": 4307,
      "бр": 4308,
      "бри": 4309,
      "вки": 4310,
      "вскочил": 4311,
      "дцати": 4312,
      "иди": 4313,
      "мною": 4314,
      "пали": 4315,
      "умол": 4316,
      "уяс": 4317,
      "уйте": 4318,
      "удержать": 4319,
      "фель": 4320,
      "шнее": 4321,
      "ъяс": 4322,
      "эконо": 4323,
      "юно": 4324,
      "тона": 4325,
      "точки": 4326,
      "нату": 4327,
      "навсегда": 4328,
      "ночи": 4329,
      "попа": 4330,
      "покой": 4331,
      "поставле": 4332,
      "конь": 4333,
      "косы": 4334,
      "косить": 4335,
      "нили": 4336,
      "нике": 4337,
      "роско": 4338,
      "рами": 4339,
      "видала": 4340,
      "логи": 4341,
      "вечера": 4342,
      "сени": 4343,
      "запах": 4344,
      "дою": 4345,
      "достал": 4346,
      "оту": 4347,
      "отчет": 4348,
      "чества": 4349,
      "ческую": 4350,
      "ныч": 4351,
      "мучало": 4352,
      "меры": 4353,
      "меша": 4354,
      "моему": 4355,
      "тили": 4356,
      "милли": 4357,
      "выступи": 4358,
      "сообраз": 4359,
      "содержа": 4360,
      "нужна": 4361,
      "простра": 4362,
      "прокричал": 4363,
      "приеха": 4364,
      "признаю": 4365,
      "приеду": 4366,
      "прикажете": 4367,
      "шение": 4368,
      "сапо": 4369,
      "саду": 4370,
      "часу": 4371,
      "станов": 4372,
      "живот": 4373,
      "стойте": 4374,
      "силу": 4375,
      "рых": 4376,
      "биться": 4377,
      "дное": 4378,
      "жное": 4379,
      "делах": 4380,
      "дых": 4381,
      "сухо": 4382,
      "детской": 4383,
      "Англи": 4384,
      "кен": 4385,
      "Аркадье": 4386,
      "голова": 4387,
      "положив": 4388,
      "думай": 4389,
      "Неведов": 4390,
      "смех": 4391,
      "обраща": 4392,
      "тяго": 4393,
      "коню": 4394,
      "стул": 4395,
      "особенного": 4396,
      "красо": 4397,
      "стые": 4398,
      "стым": 4399,
      "Моло": 4400,
      "крова": 4401,
      "черными": 4402,
      "Мама": 4403,
      "Матре": 4404,
      "плечами": 4405,
      "испытал": 4406,
      "работы": 4407,
      "лицах": 4408,
      "оглянулась": 4409,
      "чувствует": 4410,
      "сделает": 4411,
      "почтительно": 4412,
      "кончилось": 4413,
      "бросить": 4414,
      "ребенком": 4415,
      "занят": 4416,
      "добродуш": 4417,
      "спрашивая": 4418,
      "старалась": 4419,
      "ствует": 4420,
      "виноватым": 4421,
      "обоих": 4422,
      "плот": 4423,
      "образова": 4424,
      "образование": 4425,
      "тысячи": 4426,
      "уверен": 4427,
      "галсту": 4428,
      "рабочего": 4429,
      "считать": 4430,
      "Куда": 4431,
      "начинал": 4432,
      "Росси": 4433,
      "изменить": 4434,
      "оставил": 4435,
      "благодаря": 4436,
      "Голенищева": 4437,
      "важное": 4438,
      "коляске": 4439,
      "учти": 4440,
      "бумаги": 4441,
      "картины": 4442,
      "офицер": 4443,
      "обязанности": 4444,
      "гнать": 4445,
      "игры": 4446,
      "дочерью": 4447,
      "нынешний": 4448,
      "пользо": 4449,
      "занимало": 4450,
      "Вернувшись": 4451,
      "заснул": 4452,
      "получив": 4453,
      "значило": 4454,
      "мужчин": 4455,
      "мужчины": 4456,
      "неприлич": 4457,
      "звонок": 4458,
      "приличи": 4459,
      "отыскивая": 4460,
      "мыслями": 4461,
      "Первое": 4462,
      "малейшего": 4463,
      "Катавасова": 4464,
      "Метров": 4465,
      "разнообраз": 4466,
      "полковник": 4467,
      "жертво": 4468,
      "хмурясь": 4469,
      "раскаи": 4470,
      "догады": 4471,
      "порядо": 4472,
      "преимуще": 4473,
      "экономи": 4474,
      "Вз": 4475,
      "Вчера": 4476,
      "Маль": 4477,
      "Скоро": 4478,
      "влюби": 4479,
      "входя": 4480,
      "гала": 4481,
      "гали": 4482,
      "зне": 4483,
      "кти": 4484,
      "кля": 4485,
      "кали": 4486,
      "мот": 4487,
      "мело": 4488,
      "оце": 4489,
      "пли": 4490,
      "пше": 4491,
      "сце": 4492,
      "ус": 4493,
      "убы": 4494,
      "уста": 4495,
      "ян": 4496,
      "тоне": 4497,
      "тону": 4498,
      "надел": 4499,
      "нахожу": 4500,
      "неправда": 4501,
      "неверно": 4502,
      "неужели": 4503,
      "стр": 4504,
      "погу": 4505,
      "помолча": 4506,
      "кофе": 4507,
      "ниже": 4508,
      "никуда": 4509,
      "рода": 4510,
      "раньше": 4511,
      "рив": 4512,
      "лан": 4513,
      "ваш": 4514,
      "ваши": 4515,
      "вашей": 4516,
      "жешь": 4517,
      "женный": 4518,
      "забыла": 4519,
      "застави": 4520,
      "дох": 4521,
      "откуда": 4522,
      "отлично": 4523,
      "ческие": 4524,
      "моро": 4525,
      "выр": 4526,
      "выпи": 4527,
      "сок": 4528,
      "собир": 4529,
      "прочесть": 4530,
      "приоб": 4531,
      "принес": 4532,
      "берез": 4533,
      "беспокой": 4534,
      "чаем": 4535,
      "чашку": 4536,
      "делалось": 4537,
      "кучер": 4538,
      "обдумы": 4539,
      "силе": 4540,
      "разлу": 4541,
      "сколь": 4542,
      "ряда": 4543,
      "подходи": 4544,
      "бил": 4545,
      "верст": 4546,
      "верное": 4547,
      "баб": 4548,
      "батю": 4549,
      "барин": 4550,
      "бакен": 4551,
      "перестал": 4552,
      "Давно": 4553,
      "Вронском": 4554,
      "пут": 4555,
      "пуск": 4556,
      "детскую": 4557,
      "случая": 4558,
      "ответить": 4559,
      "сыну": 4560,
      "време": 4561,
      "любите": 4562,
      "княж": 4563,
      "ственным": 4564,
      "ственной": 4565,
      "ственных": 4566,
      "светом": 4567,
      "Доктор": 4568,
      "держала": 4569,
      "весела": 4570,
      "обедом": 4571,
      "план": 4572,
      "краса": 4573,
      "понимаете": 4574,
      "ющими": 4575,
      "делом": 4576,
      "выйдет": 4577,
      "разговоры": 4578,
      "позор": 4579,
      "ция": 4580,
      "другими": 4581,
      "Лиза": 4582,
      "Лицо": 4583,
      "глупы": 4584,
      "последней": 4585,
      "генер": 4586,
      "Вареньки": 4587,
      "передней": 4588,
      "каждое": 4589,
      "открывая": 4590,
      "Госпо": 4591,
      "хивая": 4592,
      "кончив": 4593,
      "Сереже": 4594,
      "находился": 4595,
      "помощи": 4596,
      "Петров": 4597,
      "народом": 4598,
      "Константина": 4599,
      "привык": 4600,
      "шляпы": 4601,
      "оскорбля": 4602,
      "бессмысле": 4603,
      "ственною": 4604,
      "ненави": 4605,
      "исклю": 4606,
      "образом": 4607,
      "красивое": 4608,
      "обман": 4609,
      "девушку": 4610,
      "приятеля": 4611,
      "учить": 4612,
      "двумя": 4613,
      "досады": 4614,
      "бале": 4615,
      "нежности": 4616,
      "кареты": 4617,
      "губерн": 4618,
      "емый": 4619,
      "счастия": 4620,
      "заботи": 4621,
      "фигуры": 4622,
      "снял": 4623,
      "присутствии": 4624,
      "болота": 4625,
      "испуганно": 4626,
      "выборы": 4627,
      "морщи": 4628,
      "тягивая": 4629,
      "согласиться": 4630,
      "отъезда": 4631,
      "ющееся": 4632,
      "городе": 4633,
      "лакею": 4634,
      "барха": 4635,
      "разговаривая": 4636,
      "послышались": 4637,
      "останавливаясь": 4638,
      "платфор": 4639,
      "ревности": 4640,
      "опасно": 4641,
      "обманывать": 4642,
      "ласково": 4643,
      "извозчи": 4644,
      "известие": 4645,
      "господина": 4646,
      "условий": 4647,
      "телеграмму": 4648,
      "Мягкая": 4649,
      "вспых": 4650,
      "засмеялась": 4651,
      "ружье": 4652,
      "одинаково": 4653,
      "взаим": 4654,
      "учтиво": 4655,
      "бакенбар": 4656,
      "at": 4657,
      "mo": 4658,
      "Бу": 4659,
      "Дей": 4660,
      "Ска": 4661,
      "Сле": 4662,
      "Снет": 4663,
      "Фран": 4664,
      "ап": 4665,
      "ари": 4666,
      "бь": 4667,
      "всь": 4668,
      "входил": 4669,
      "гнув": 4670,
      "дку": 4671,
      "дря": 4672,
      "жных": 4673,
      "зали": 4674,
      "идите": 4675,
      "йся": 4676,
      "лжи": 4677,
      "оре": 4678,
      "опе": 4679,
      "отор": 4680,
      "оправды": 4681,
      "прас": 4682,
      "сдержа": 4683,
      "ули": 4684,
      "цели": 4685,
      "чках": 4686,
      "щался": 4687,
      "нашего": 4688,
      "небо": 4689,
      "неиз": 4690,
      "неизвест": 4691,
      "небре": 4692,
      "ному": 4693,
      "носить": 4694,
      "стное": 4695,
      "пох": 4696,
      "поехала": 4697,
      "полюбила": 4698,
      "кость": 4699,
      "нит": 4700,
      "никами": 4701,
      "воду": 4702,
      "вошли": 4703,
      "ровно": 4704,
      "лова": 4705,
      "лило": 4706,
      "либер": 4707,
      "ваете": 4708,
      "вавшего": 4709,
      "ваюсь": 4710,
      "сереб": 4711,
      "занимал": 4712,
      "отстра": 4713,
      "отцу": 4714,
      "откро": 4715,
      "отдель": 4716,
      "давать": 4717,
      "дайте": 4718,
      "тери": 4719,
      "мучала": 4720,
      "тию": 4721,
      "тата": 4722,
      "выро": 4723,
      "прошли": 4724,
      "приказа": 4725,
      "приписы": 4726,
      "беру": 4727,
      "беспо": 4728,
      "душой": 4729,
      "всею": 4730,
      "шен": 4731,
      "чательно": 4732,
      "мату": 4733,
      "облег": 4734,
      "знание": 4735,
      "числе": 4736,
      "разных": 4737,
      "разуме": 4738,
      "нью": 4739,
      "рый": 4740,
      "щему": 4741,
      "изла": 4742,
      "рье": 4743,
      "подра": 4744,
      "бирая": 4745,
      "верну": 4746,
      "вернуться": 4747,
      "бан": 4748,
      "расче": 4749,
      "рассказала": 4750,
      "вздрог": 4751,
      "дыми": 4752,
      "путе": 4753,
      "больши": 4754,
      "большим": 4755,
      "Пол": 4756,
      "страсть": 4757,
      "положила": 4758,
      "положим": 4759,
      "альные": 4760,
      "женная": 4761,
      "оставля": 4762,
      "остается": 4763,
      "чался": 4764,
      "темно": 4765,
      "думав": 4766,
      "думаете": 4767,
      "ственные": 4768,
      "ственного": 4769,
      "Чтобы": 4770,
      "весель": 4771,
      "Наконец": 4772,
      "полный": 4773,
      "полное": 4774,
      "полчаса": 4775,
      "минута": 4776,
      "немнож": 4777,
      "соверша": 4778,
      "зии": 4779,
      "Таня": 4780,
      "поздоро": 4781,
      "приятное": 4782,
      "кровь": 4783,
      "княгиню": 4784,
      "Точно": 4785,
      "продолжать": 4786,
      "продолжалось": 4787,
      "Весь": 4788,
      "умный": 4789,
      "любов": 4790,
      "родных": 4791,
      "грубо": 4792,
      "грустно": 4793,
      "Завтра": 4794,
      "кресла": 4795,
      "горни": 4796,
      "порт": 4797,
      "графиню": 4798,
      "мужикам": 4799,
      "правиль": 4800,
      "подняв": 4801,
      "поднялась": 4802,
      "дурного": 4803,
      "сомнение": 4804,
      "спину": 4805,
      "надеюсь": 4806,
      "прекрасная": 4807,
      "колеба": 4808,
      "маленький": 4809,
      "Каренин": 4810,
      "принялся": 4811,
      "весьма": 4812,
      "ненатур": 4813,
      "молчание": 4814,
      "уничто": 4815,
      "богат": 4816,
      "новою": 4817,
      "Аннушка": 4818,
      "Петербурга": 4819,
      "страданий": 4820,
      "ждая": 4821,
      "семье": 4822,
      "артель": 4823,
      "архи": 4824,
      "господин": 4825,
      "ons": 4826,
      "Изви": 4827,
      "инород": 4828,
      "сознательно": 4829,
      "зале": 4830,
      "залы": 4831,
      "ошиба": 4832,
      "отчаяния": 4833,
      "причины": 4834,
      "причиной": 4835,
      "возьми": 4836,
      "уважение": 4837,
      "интересовало": 4838,
      "правляя": 4839,
      "полез": 4840,
      "поцеловала": 4841,
      "приказчик": 4842,
      "строгое": 4843,
      "прочла": 4844,
      "необходимость": 4845,
      "удерживая": 4846,
      "показалась": 4847,
      "направление": 4848,
      "старому": 4849,
      "услыхала": 4850,
      "Право": 4851,
      "отврати": 4852,
      "понравилась": 4853,
      "честный": 4854,
      "подтвердил": 4855,
      "Верно": 4856,
      "послать": 4857,
      "посланника": 4858,
      "железной": 4859,
      "постели": 4860,
      "кормили": 4861,
      "влияние": 4862,
      "тяжелы": 4863,
      "враждеб": 4864,
      "хорошенько": 4865,
      "нахмурился": 4866,
      "независимо": 4867,
      "Песцов": 4868,
      "школы": 4869,
      "Через": 4870,
      "боялась": 4871,
      "просияло": 4872,
      "торопливо": 4873,
      "увеличи": 4874,
      "элега": 4875,
      "Кузьма": 4876,
      "поверишь": 4877,
      "устремле": 4878,
      "фальши": 4879,
      "церковь": 4880,
      "Луки": 4881,
      "помолчав": 4882,
      "Действительно": 4883,
      "fa": 4884,
      "me": 4885,
      "un": 4886,
      "Ле": 4887,
      "Мер": 4888,
      "Си": 4889,
      "Ст": 4890,
      "ат": 4891,
      "бел": 4892,
      "брал": 4893,
      "вского": 4894,
      "еть": 4895,
      "жная": 4896,
      "лал": 4897,
      "мали": 4898,
      "ов": 4899,
      "ом": 4900,
      "одея": 4901,
      "озло": 4902,
      "освобо": 4903,
      "сна": 4904,
      "сал": 4905,
      "спод": 4906,
      "тщет": 4907,
      "указ": 4908,
      "уехали": 4909,
      "угро": 4910,
      "укори": 4911,
      "хе": 4912,
      "чел": 4913,
      "чкой": 4914,
      "наша": 4915,
      "награ": 4916,
      "наказа": 4917,
      "написать": 4918,
      "написала": 4919,
      "настаи": 4920,
      "некогда": 4921,
      "нением": 4922,
      "неохотно": 4923,
      "гость": 4924,
      "господ": 4925,
      "порти": 4926,
      "поход": 4927,
      "пожертво": 4928,
      "ниться": 4929,
      "нившись": 4930,
      "капи": 4931,
      "вовсе": 4932,
      "волю": 4933,
      "воск": 4934,
      "ронес": 4935,
      "ребя": 4936,
      "лок": 4937,
      "ложь": 4938,
      "ваша": 4939,
      "сестре": 4940,
      "сестру": 4941,
      "жег": 4942,
      "женным": 4943,
      "женного": 4944,
      "зашел": 4945,
      "заслу": 4946,
      "запер": 4947,
      "затво": 4948,
      "отра": 4949,
      "отки": 4950,
      "ческий": 4951,
      "ческим": 4952,
      "мут": 4953,
      "моих": 4954,
      "выпро": 4955,
      "выез": 4956,
      "выбра": 4957,
      "выговари": 4958,
      "выход": 4959,
      "сой": 4960,
      "сочи": 4961,
      "сошел": 4962,
      "сосед": 4963,
      "состоит": 4964,
      "соответ": 4965,
      "нумер": 4966,
      "прошла": 4967,
      "диван": 4968,
      "прида": 4969,
      "бега": 4970,
      "дура": 4971,
      "духо": 4972,
      "нях": 4973,
      "няться": 4974,
      "шевели": 4975,
      "мазу": 4976,
      "куче": 4977,
      "столюби": 4978,
      "облоко": 4979,
      "скот": 4980,
      "изо": 4981,
      "избра": 4982,
      "луга": 4983,
      "говорилось": 4984,
      "жаться": 4985,
      "жайте": 4986,
      "шаю": 4987,
      "шампа": 4988,
      "перешел": 4989,
      "переез": 4990,
      "расстро": 4991,
      "делаю": 4992,
      "чувств": 4993,
      "чувстви": 4994,
      "мнению": 4995,
      "емся": 4996,
      "суждения": 4997,
      "детям": 4998,
      "председа": 4999,
      "жаль": 5000,
      "жался": 5001,
      "имело": 5002,
      "останется": 5003,
      "хорошего": 5004,
      "хорошие": 5005,
      "хорошим": 5006,
      "ственный": 5007,
      "конца": 5008,
      "контор": 5009,
      "взглянуть": 5010,
      "вязы": 5011,
      "жусь": 5012,
      "первая": 5013,
      "первого": 5014,
      "чном": 5015,
      "Василь": 5016,
      "безобраз": 5017,
      "щать": 5018,
      "войти": 5019,
      "чувствовали": 5020,
      "Нисколько": 5021,
      "выражению": 5022,
      "зиму": 5023,
      "травы": 5024,
      "вопросов": 5025,
      "княгиней": 5026,
      "Тогда": 5027,
      "противно": 5028,
      "тридцать": 5029,
      "совершенство": 5030,
      "общем": 5031,
      "молчала": 5032,
      "движений": 5033,
      "спокойным": 5034,
      "любовни": 5035,
      "последнюю": 5036,
      "обычай": 5037,
      "душевное": 5038,
      "самыми": 5039,
      "испыта": 5040,
      "деревни": 5041,
      "сделано": 5042,
      "шедшему": 5043,
      "произведе": 5044,
      "кончить": 5045,
      "состояния": 5046,
      "надеялся": 5047,
      "Сережи": 5048,
      "прекрасные": 5049,
      "добродушно": 5050,
      "известно": 5051,
      "большого": 5052,
      "XXX": 5053,
      "охота": 5054,
      "искрен": 5055,
      "тысячу": 5056,
      "осталась": 5057,
      "высшей": 5058,
      "нежность": 5059,
      "начало": 5060,
      "губернии": 5061,
      "причину": 5062,
      "фами": 5063,
      "отворил": 5064,
      "побежал": 5065,
      "солда": 5066,
      "требования": 5067,
      "страшное": 5068,
      "болезне": 5069,
      "оскорбить": 5070,
      "болото": 5071,
      "товарища": 5072,
      "крыльцо": 5073,
      "комите": 5074,
      "похожи": 5075,
      "отказала": 5076,
      "отказался": 5077,
      "свидания": 5078,
      "старого": 5079,
      "партия": 5080,
      "Гриша": 5081,
      "швейцара": 5082,
      "лестницу": 5083,
      "физически": 5084,
      "собаки": 5085,
      "столовую": 5086,
      "недостат": 5087,
      "Стари": 5088,
      "клуб": 5089,
      "взглядывая": 5090,
      "Петровна": 5091,
      "послала": 5092,
      "погиб": 5093,
      "поступил": 5094,
      "философи": 5095,
      "Тверской": 5096,
      "Положим": 5097,
      "произошло": 5098,
      "четырех": 5099,
      "Филимо": 5100,
      "Лизавета": 5101,
      "Тушкевич": 5102,
      "Стремов": 5103,
      "Ужасно": 5104,
      "покрови": 5105,
      "сожале": 5106,
      "стоило": 5107,
      "дожидаясь": 5108,
      "Брат": 5109,
      "зонти": 5110,
      "блестели": 5111,
      "секрета": 5112,
      "Аркадьевне": 5113,
      "немножко": 5114,
      "pas": 5115,
      "us": 5116,
      "Бла": 5117,
      "Ее": 5118,
      "Же": 5119,
      "Жи": 5120,
      "Ло": 5121,
      "Лю": 5122,
      "Оно": 5123,
      "Сей": 5124,
      "Свя": 5125,
      "Тит": 5126,
      "Чи": 5127,
      "Чего": 5128,
      "Этого": 5129,
      "вная": 5130,
      "взад": 5131,
      "гало": 5132,
      "дке": 5133,
      "дный": 5134,
      "дным": 5135,
      "ец": 5136,
      "жки": 5137,
      "зли": 5138,
      "ич": 5139,
      "нства": 5140,
      "осо": 5141,
      "оси": 5142,
      "обой": 5143,
      "село": 5144,
      "уча": 5145,
      "уши": 5146,
      "ушла": 5147,
      "укра": 5148,
      "уехала": 5149,
      "управля": 5150,
      "упомина": 5151,
      "уклады": 5152,
      "устраи": 5153,
      "фразу": 5154,
      "цуже": 5155,
      "чалось": 5156,
      "ях": 5157,
      "нало": 5158,
      "нале": 5159,
      "напи": 5160,
      "насколько": 5161,
      "нашли": 5162,
      "направо": 5163,
      "напомина": 5164,
      "натяну": 5165,
      "натур": 5166,
      "наверное": 5167,
      "напрас": 5168,
      "неизбе": 5169,
      "неудержи": 5170,
      "несчастлив": 5171,
      "гое": 5172,
      "пости": 5173,
      "подать": 5174,
      "погляды": 5175,
      "повернулся": 5176,
      "коп": 5177,
      "кос": 5178,
      "косу": 5179,
      "ниж": 5180,
      "нилась": 5181,
      "ничь": 5182,
      "кавал": 5183,
      "каком": 5184,
      "рать": 5185,
      "рем": 5186,
      "рет": 5187,
      "вил": 5188,
      "рисо": 5189,
      "лать": 5190,
      "личи": 5191,
      "вашу": 5192,
      "вавшись": 5193,
      "вее": 5194,
      "вера": 5195,
      "вере": 5196,
      "верь": 5197,
      "женное": 5198,
      "женные": 5199,
      "женных": 5200,
      "женился": 5201,
      "зате": 5202,
      "лей": 5203,
      "дови": 5204,
      "доказа": 5205,
      "доказать": 5206,
      "отцом": 5207,
      "тек": 5208,
      "теми": 5209,
      "чество": 5210,
      "мому": 5211,
      "моль": 5212,
      "тит": 5213,
      "такую": 5214,
      "сор": 5215,
      "соло": 5216,
      "сооб": 5217,
      "сорок": 5218,
      "скажешь": 5219,
      "провести": 5220,
      "дишь": 5221,
      "приба": 5222,
      "прием": 5223,
      "приводи": 5224,
      "приходили": 5225,
      "привяза": 5226,
      "бежать": 5227,
      "бежали": 5228,
      "бов": 5229,
      "няясь": 5230,
      "шер": 5231,
      "сади": 5232,
      "чается": 5233,
      "частью": 5234,
      "делся": 5235,
      "делали": 5236,
      "жительно": 5237,
      "сидеть": 5238,
      "развле": 5239,
      "разобра": 5240,
      "разделя": 5241,
      "рым": 5242,
      "лую": 5243,
      "телю": 5244,
      "любу": 5245,
      "встали": 5246,
      "чуж": 5247,
      "ряды": 5248,
      "друже": 5249,
      "дном": 5250,
      "переговорить": 5251,
      "перегород": 5252,
      "рассерди": 5253,
      "рассея": 5254,
      "делаете": 5255,
      "делаешь": 5256,
      "губ": 5257,
      "пути": 5258,
      "публи": 5259,
      "Какие": 5260,
      "возник": 5261,
      "нимали": 5262,
      "положил": 5263,
      "Иван": 5264,
      "шум": 5265,
      "границы": 5266,
      "смешно": 5267,
      "смехом": 5268,
      "концер": 5269,
      "первым": 5270,
      "чною": 5271,
      "действия": 5272,
      "слыша": 5273,
      "краска": 5274,
      "встрече": 5275,
      "встречала": 5276,
      "встретить": 5277,
      "зился": 5278,
      "такими": 5279,
      "кругом": 5280,
      "крот": 5281,
      "увидать": 5282,
      "циаль": 5283,
      "яснее": 5284,
      "умерла": 5285,
      "двига": 5286,
      "спокойна": 5287,
      "спокойною": 5288,
      "умру": 5289,
      "Мать": 5290,
      "всяком": 5291,
      "всякое": 5292,
      "кричала": 5293,
      "груди": 5294,
      "крест": 5295,
      "хозяйка": 5296,
      "поймет": 5297,
      "графине": 5298,
      "трога": 5299,
      "работу": 5300,
      "счастливы": 5301,
      "террас": 5302,
      "велела": 5303,
      "благоро": 5304,
      "чувствуешь": 5305,
      "домаш": 5306,
      "класси": 5307,
      "держаться": 5308,
      "состояла": 5309,
      "брови": 5310,
      "надежды": 5311,
      "мерт": 5312,
      "сердцем": 5313,
      "старичок": 5314,
      "насчет": 5315,
      "тность": 5316,
      "жалованья": 5317,
      "маленькой": 5318,
      "Весловским": 5319,
      "охоту": 5320,
      "принял": 5321,
      "найдет": 5322,
      "италь": 5323,
      "помнить": 5324,
      "русского": 5325,
      "русских": 5326,
      "русские": 5327,
      "француже": 5328,
      "обмана": 5329,
      "ужасное": 5330,
      "нравилось": 5331,
      "семьи": 5332,
      "соблю": 5333,
      "помещи": 5334,
      "карма": 5335,
      "представлялось": 5336,
      "осталось": 5337,
      "господа": 5338,
      "прежние": 5339,
      "дитесь": 5340,
      "правления": 5341,
      "изменилось": 5342,
      "карете": 5343,
      "отчаянием": 5344,
      "губернского": 5345,
      "известный": 5346,
      "становилось": 5347,
      "действительности": 5348,
      "коляски": 5349,
      "живопи": 5350,
      "интересовался": 5351,
      "девочку": 5352,
      "возвращаясь": 5353,
      "далека": 5354,
      "вспоминать": 5355,
      "Сафо": 5356,
      "ющимся": 5357,
      "повторял": 5358,
      "играл": 5359,
      "отошел": 5360,
      "выборах": 5361,
      "зависит": 5362,
      "нынешнего": 5363,
      "свиданья": 5364,
      "согласился": 5365,
      "урок": 5366,
      "направления": 5367,
      "англичанин": 5368,
      "половине": 5369,
      "our": 5370,
      "занимали": 5371,
      "ступая": 5372,
      "заснуть": 5373,
      "слабости": 5374,
      "жениться": 5375,
      "платком": 5376,
      "выгоды": 5377,
      "послал": 5378,
      "вроде": 5379,
      "нахмурившись": 5380,
      "сравне": 5381,
      "философ": 5382,
      "Пила": 5383,
      "доложить": 5384,
      "кварти": 5385,
      "девять": 5386,
      "стреля": 5387,
      "Львов": 5388,
      "проводил": 5389,
      "славный": 5390,
      "упорно": 5391,
      "памяти": 5392,
      "учреждения": 5393,
      "помощью": 5394,
      "способность": 5395,
      "командир": 5396,
      "утверди": 5397,
      "кафта": 5398,
      "ужинать": 5399,
      "кровати": 5400,
      "инородцев": 5401,
      "Стало": 5402,
      "Сейчас": 5403,
      "so": 5404,
      "Вдруг": 5405,
      "Два": 5406,
      "Иди": 5407,
      "Луч": 5408,
      "Сначала": 5409,
      "Чем": 5410,
      "гнул": 5411,
      "др": 5412,
      "дки": 5413,
      "далось": 5414,
      "зей": 5415,
      "зало": 5416,
      "звали": 5417,
      "ию": 5418,
      "кт": 5419,
      "лки": 5420,
      "лала": 5421,
      "ори": 5422,
      "одо": 5423,
      "остро": 5424,
      "оказалось": 5425,
      "оправи": 5426,
      "охвати": 5427,
      "ологи": 5428,
      "пеле": 5429,
      "сразу": 5430,
      "тр": 5431,
      "тня": 5432,
      "тку": 5433,
      "ухо": 5434,
      "усами": 5435,
      "увлек": 5436,
      "успокое": 5437,
      "услыхав": 5438,
      "фраз": 5439,
      "хала": 5440,
      "шта": 5441,
      "шала": 5442,
      "шался": 5443,
      "щь": 5444,
      "ющую": 5445,
      "ядови": 5446,
      "написа": 5447,
      "например": 5448,
      "неуда": 5449,
      "нечисто": 5450,
      "стным": 5451,
      "поне": 5452,
      "пови": 5453,
      "поста": 5454,
      "поры": 5455,
      "поэти": 5456,
      "подумать": 5457,
      "пошло": 5458,
      "посмотреть": 5459,
      "поряд": 5460,
      "поскорее": 5461,
      "покупа": 5462,
      "кост": 5463,
      "вось": 5464,
      "водов": 5465,
      "роде": 5466,
      "рома": 5467,
      "рожде": 5468,
      "родов": 5469,
      "вида": 5470,
      "вица": 5471,
      "риться": 5472,
      "рившись": 5473,
      "лип": 5474,
      "вах": 5475,
      "вавшая": 5476,
      "веду": 5477,
      "вень": 5478,
      "сена": 5479,
      "запря": 5480,
      "заблу": 5481,
      "задушев": 5482,
      "лежал": 5483,
      "лежала": 5484,
      "достой": 5485,
      "доводы": 5486,
      "отста": 5487,
      "отделе": 5488,
      "деше": 5489,
      "честно": 5490,
      "муску": 5491,
      "высказал": 5492,
      "выговорить": 5493,
      "вызо": 5494,
      "выставля": 5495,
      "ручку": 5496,
      "нужен": 5497,
      "пройти": 5498,
      "провела": 5499,
      "дипло": 5500,
      "приходил": 5501,
      "приведе": 5502,
      "присоеди": 5503,
      "беспокои": 5504,
      "духов": 5505,
      "бол": 5506,
      "шек": 5507,
      "чах": 5508,
      "ляр": 5509,
      "мас": 5510,
      "маха": 5511,
      "живе": 5512,
      "столи": 5513,
      "силой": 5514,
      "читы": 5515,
      "разбу": 5516,
      "разные": 5517,
      "разводе": 5518,
      "предо": 5519,
      "пренебре": 5520,
      "скоти": 5521,
      "скоше": 5522,
      "излиш": 5523,
      "Левине": 5524,
      "луй": 5525,
      "скими": 5526,
      "чужи": 5527,
      "пая": 5528,
      "также": 5529,
      "подвер": 5530,
      "жного": 5531,
      "рассказать": 5532,
      "Дайте": 5533,
      "суди": 5534,
      "цам": 5535,
      "словом": 5536,
      "Кажется": 5537,
      "большими": 5538,
      "казалась": 5539,
      "вному": 5540,
      "ездили": 5541,
      "Потому": 5542,
      "Постой": 5543,
      "Аркадьевны": 5544,
      "возму": 5545,
      "воздух": 5546,
      "сыне": 5547,
      "просили": 5548,
      "брате": 5549,
      "хороши": 5550,
      "цов": 5551,
      "улыбалась": 5552,
      "князем": 5553,
      "стую": 5554,
      "ступле": 5555,
      "ступень": 5556,
      "счастью": 5557,
      "взгляду": 5558,
      "журна": 5559,
      "первые": 5560,
      "красный": 5561,
      "весели": 5562,
      "Вам": 5563,
      "замечала": 5564,
      "планы": 5565,
      "полко": 5566,
      "слава": 5567,
      "понимают": 5568,
      "встретила": 5569,
      "зимы": 5570,
      "надцати": 5571,
      "твои": 5572,
      "твоей": 5573,
      "стых": 5574,
      "круп": 5575,
      "молод": 5576,
      "молодости": 5577,
      "молодого": 5578,
      "поздра": 5579,
      "вопросе": 5580,
      "продолжая": 5581,
      "лучшее": 5582,
      "зор": 5583,
      "остановившись": 5584,
      "блага": 5585,
      "любопыт": 5586,
      "слышно": 5587,
      "всякой": 5588,
      "грубы": 5589,
      "крести": 5590,
      "кресле": 5591,
      "хозяйством": 5592,
      "верила": 5593,
      "связы": 5594,
      "готово": 5595,
      "легким": 5596,
      "пустив": 5597,
      "Ворку": 5598,
      "Тебе": 5599,
      "земля": 5600,
      "Михаил": 5601,
      "равнодушно": 5602,
      "хитро": 5603,
      "Свияжским": 5604,
      "Свияжскому": 5605,
      "толпе": 5606,
      "толпа": 5607,
      "надеясь": 5608,
      "видите": 5609,
      "помоги": 5610,
      "сильное": 5611,
      "объяснение": 5612,
      "счастьем": 5613,
      "спрашивала": 5614,
      "Прости": 5615,
      "привычным": 5616,
      "книге": 5617,
      "мыслью": 5618,
      "тонко": 5619,
      "тонким": 5620,
      "Весловского": 5621,
      "едут": 5622,
      "признаться": 5623,
      "ненавижу": 5624,
      "горячо": 5625,
      "приятен": 5626,
      "телями": 5627,
      "семью": 5628,
      "решено": 5629,
      "учитель": 5630,
      "приезде": 5631,
      "работой": 5632,
      "старых": 5633,
      "встать": 5634,
      "ссора": 5635,
      "прежнее": 5636,
      "прежних": 5637,
      "оставив": 5638,
      "губерна": 5639,
      "белых": 5640,
      "белыми": 5641,
      "емых": 5642,
      "общий": 5643,
      "картину": 5644,
      "забыв": 5645,
      "болезнь": 5646,
      "оживленно": 5647,
      "обязанность": 5648,
      "пружи": 5649,
      "крыльца": 5650,
      "Глаза": 5651,
      "умом": 5652,
      "Гришу": 5653,
      "низко": 5654,
      "держался": 5655,
      "вздохнув": 5656,
      "средства": 5657,
      "выразить": 5658,
      "происходило": 5659,
      "замечание": 5660,
      "радостное": 5661,
      "ous": 5662,
      "понравился": 5663,
      "несчастна": 5664,
      "естественно": 5665,
      "одобрительно": 5666,
      "заплакала": 5667,
      "окружа": 5668,
      "получила": 5669,
      "Винова": 5670,
      "манера": 5671,
      "характер": 5672,
      "грудью": 5673,
      "кабинета": 5674,
      "адвокат": 5675,
      "хлеба": 5676,
      "довательно": 5677,
      "предмета": 5678,
      "покорно": 5679,
      "торопился": 5680,
      "события": 5681,
      "событие": 5682,
      "сотни": 5683,
      "извозчика": 5684,
      "рабочих": 5685,
      "Говорят": 5686,
      "Филип": 5687,
      "Слушаю": 5688,
      "Христа": 5689,
      "профессор": 5690,
      "смысла": 5691,
      "женитьбы": 5692,
      "заседание": 5693,
      "пробовал": 5694,
      "близости": 5695,
      "баллотиро": 5696,
      "Рябинин": 5697,
      "неподвижно": 5698,
      "пройдет": 5699,
      "боится": 5700,
      "избавиться": 5701,
      "невыноси": 5702,
      "красотой": 5703,
      "батюшка": 5704,
      "Господи": 5705,
      "серебря": 5706,
      "открове": 5707,
      "путеше": 5708,
      "Меркало": 5709,
      "Лоша": 5710,
      "Lin": 5711,
      "he": 5712,
      "Ар": 5713,
      "Ер": 5714,
      "Кра": 5715,
      "Обед": 5716,
      "Окончив": 5717,
      "Ру": 5718,
      "Узна": 5719,
      "Швейца": 5720,
      "вня": 5721,
      "вхо": 5722,
      "вным": 5723,
      "гнувшись": 5724,
      "дшне": 5725,
      "ждет": 5726,
      "жок": 5727,
      "иду": 5728,
      "ос": 5729,
      "озна": 5730,
      "осла": 5731,
      "охла": 5732,
      "оделся": 5733,
      "рала": 5734,
      "съ": 5735,
      "сели": 5736,
      "убра": 5737,
      "уедет": 5738,
      "утрен": 5739,
      "усовершенство": 5740,
      "фли": 5741,
      "шлись": 5742,
      "шленно": 5743,
      "щала": 5744,
      "щали": 5745,
      "ъю": 5746,
      "ющая": 5747,
      "напо": 5748,
      "насу": 5749,
      "находя": 5750,
      "нела": 5751,
      "непро": 5752,
      "нераз": 5753,
      "ненных": 5754,
      "несчастье": 5755,
      "ножи": 5756,
      "носила": 5757,
      "стрели": 5758,
      "гостя": 5759,
      "поду": 5760,
      "помог": 5761,
      "почер": 5762,
      "поставил": 5763,
      "помолчал": 5764,
      "посовето": 5765,
      "нигде": 5766,
      "кана": 5767,
      "вор": 5768,
      "роки": 5769,
      "робо": 5770,
      "ропей": 5771,
      "реза": 5772,
      "ливые": 5773,
      "ваются": 5774,
      "вещей": 5775,
      "вещь": 5776,
      "жестом": 5777,
      "зах": 5778,
      "заба": 5779,
      "задро": 5780,
      "засу": 5781,
      "закон": 5782,
      "лез": 5783,
      "лесу": 5784,
      "достать": 5785,
      "доверие": 5786,
      "ота": 5787,
      "отдал": 5788,
      "отсут": 5789,
      "даром": 5790,
      "тепере": 5791,
      "чеп": 5792,
      "честолюби": 5793,
      "месту": 5794,
      "мент": 5795,
      "мок": 5796,
      "море": 5797,
      "моем": 5798,
      "тать": 5799,
      "выпря": 5800,
      "выказы": 5801,
      "сопер": 5802,
      "льяр": 5803,
      "проме": 5804,
      "пробу": 5805,
      "прощения": 5806,
      "дины": 5807,
      "дится": 5808,
      "прие": 5809,
      "пришли": 5810,
      "признать": 5811,
      "приговари": 5812,
      "прийти": 5813,
      "примет": 5814,
      "приходило": 5815,
      "душа": 5816,
      "пец": 5817,
      "пешком": 5818,
      "боком": 5819,
      "нями": 5820,
      "хохот": 5821,
      "шила": 5822,
      "живая": 5823,
      "кура": 5824,
      "купи": 5825,
      "стою": 5826,
      "обли": 5827,
      "обдумать": 5828,
      "симпа": 5829,
      "разъяс": 5830,
      "рые": 5831,
      "тывая": 5832,
      "щеки": 5833,
      "изло": 5834,
      "чуде": 5835,
      "пант": 5836,
      "подходил": 5837,
      "туляр": 5838,
      "лых": 5839,
      "бинок": 5840,
      "пито": 5841,
      "гар": 5842,
      "вернулись": 5843,
      "баронес": 5844,
      "передать": 5845,
      "делами": 5846,
      "чувстве": 5847,
      "губа": 5848,
      "Александровну": 5849,
      "пуго": 5850,
      "сужде": 5851,
      "судить": 5852,
      "сумас": 5853,
      "долги": 5854,
      "предположения": 5855,
      "Капито": 5856,
      "тельного": 5857,
      "больших": 5858,
      "Постойте": 5859,
      "служить": 5860,
      "страсти": 5861,
      "страха": 5862,
      "мян": 5863,
      "положению": 5864,
      "зятя": 5865,
      "женское": 5866,
      "остаться": 5867,
      "оставалось": 5868,
      "граци": 5869,
      "графа": 5870,
      "Непременно": 5871,
      "свети": 5872,
      "свежи": 5873,
      "тят": 5874,
      "Ивановну": 5875,
      "особенную": 5876,
      "Наде": 5877,
      "Напротив": 5878,
      "действие": 5879,
      "другому": 5880,
      "плакать": 5881,
      "двенадцать": 5882,
      "полка": 5883,
      "слать": 5884,
      "добр": 5885,
      "выража": 5886,
      "выйдя": 5887,
      "разговоров": 5888,
      "траву": 5889,
      "решила": 5890,
      "подойдя": 5891,
      "Дарью": 5892,
      "общему": 5893,
      "ставила": 5894,
      "второ": 5895,
      "циона": 5896,
      "двигая": 5897,
      "Рас": 5898,
      "будущей": 5899,
      "умного": 5900,
      "Маша": 5901,
      "зом": 5902,
      "мужья": 5903,
      "сделалось": 5904,
      "интереса": 5905,
      "интересы": 5906,
      "любовался": 5907,
      "родные": 5908,
      "образу": 5909,
      "гордость": 5910,
      "хозяйкой": 5911,
      "готовы": 5912,
      "бности": 5913,
      "длинными": 5914,
      "худо": 5915,
      "поднялись": 5916,
      "благополу": 5917,
      "благослови": 5918,
      "держась": 5919,
      "шедшей": 5920,
      "броше": 5921,
      "броса": 5922,
      "щееся": 5923,
      "находится": 5924,
      "женат": 5925,
      "сердцу": 5926,
      "объяснять": 5927,
      "занята": 5928,
      "ожидания": 5929,
      "народе": 5930,
      "Константину": 5931,
      "маленькие": 5932,
      "Лидию": 5933,
      "большом": 5934,
      "книга": 5935,
      "ant": 5936,
      "едино": 5937,
      "виноватою": 5938,
      "Весловскому": 5939,
      "спасти": 5940,
      "европей": 5941,
      "Каренину": 5942,
      "бессознательно": 5943,
      "помнила": 5944,
      "помните": 5945,
      "русский": 5946,
      "ненавидит": 5947,
      "молчания": 5948,
      "ступило": 5949,
      "внизу": 5950,
      "силами": 5951,
      "свободу": 5952,
      "волоса": 5953,
      "устрои": 5954,
      "мысленно": 5955,
      "воспоминании": 5956,
      "воспоминаний": 5957,
      "учиться": 5958,
      "представлялись": 5959,
      "предложил": 5960,
      "ссоры": 5961,
      "столк": 5962,
      "нежностью": 5963,
      "начинает": 5964,
      "сознанием": 5965,
      "Михайлова": 5966,
      "началось": 5967,
      "карета": 5968,
      "сияя": 5969,
      "благодар": 5970,
      "благодарю": 5971,
      "Сороки": 5972,
      "милое": 5973,
      "спуск": 5974,
      "статьи": 5975,
      "статью": 5976,
      "смотрит": 5977,
      "полагал": 5978,
      "Павло": 5979,
      "Был": 5980,
      "девочке": 5981,
      "требовал": 5982,
      "смешкой": 5983,
      "картине": 5984,
      "вспоминала": 5985,
      "присутствия": 5986,
      "случаю": 5987,
      "белой": 5988,
      "белоку": 5989,
      "снег": 5990,
      "настоящее": 5991,
      "настоящая": 5992,
      "коротко": 5993,
      "берет": 5994,
      "избегая": 5995,
      "Главное": 5996,
      "гнал": 5997,
      "показался": 5998,
      "свидание": 5999,
      "религиоз": 6000,
      "половины": 6001,
      "Корней": 6002,
      "опустив": 6003,
      "упрека": 6004,
      "братьев": 6005,
      "замечания": 6006,
      "ent": 6007,
      "Знаю": 6008,
      "играть": 6009,
      "ванг": 6010,
      "грязи": 6011,
      "широко": 6012,
      "перемена": 6013,
      "холодный": 6014,
      "холодным": 6015,
      "снизу": 6016,
      "Дево": 6017,
      "Дети": 6018,
      "члены": 6019,
      "значительным": 6020,
      "главный": 6021,
      "развитие": 6022,
      "пускай": 6023,
      "слабость": 6024,
      "историю": 6025,
      "клубе": 6026,
      "влиянием": 6027,
      "неприлично": 6028,
      "вшеюся": 6029,
      "подозре": 6030,
      "понимали": 6031,
      "прошедшее": 6032,
      "распоряжения": 6033,
      "явления": 6034,
      "придется": 6035,
      "уверена": 6036,
      "опас": 6037,
      "жестоко": 6038,
      "насмешливо": 6039,
      "прекратить": 6040,
      "аккура": 6041,
      "примирения": 6042,
      "увидишь": 6043,
      "начальник": 6044,
      "видят": 6045,
      "Положение": 6046,
      "умышленно": 6047,
      "молит": 6048,
      "знаменитый": 6049,
      "относительно": 6050,
      "чужой": 6051,
      "секунду": 6052,
      "фура": 6053,
      "принци": 6054,
      "опомниться": 6055,
      "помилуй": 6056,
      "настроение": 6057,
      "Пойдемте": 6058,
      "поворачивая": 6059,
      "com": 6060,
      "препятствия": 6061,
      "достоинства": 6062,
      "уныло": 6063,
      "превосходи": 6064,
      "Махотина": 6065,
      "покачивая": 6066,
      "адъю": 6067,
      "славян": 6068,
      "Корсунский": 6069,
      "оруди": 6070,
      "разочаро": 6071,
      "Европе": 6072,
      "приличия": 6073,
      "приобре": 6074,
      "случаях": 6075,
      "излагать": 6076,
      "большинство": 6077,
      "Лукич": 6078,
      "озлобле": 6079,
      "укоризне": 6080,
      "солдат": 6081,
      "обойти": 6082,
      "Лучше": 6083,
      "диплома": 6084,
      "Виноват": 6085,
      "Linon": 6086,
      "пантал": 6087,
      "Ma": 6088,
      "der": 6089,
      "dam": 6090,
      "ic": 6091,
      "ra": 6092,
      "si": 6093,
      "ule": 6094,
      "Бря": 6095,
      "Га": 6096,
      "Дела": 6097,
      "Крак": 6098,
      "Криц": 6099,
      "ТЬ": 6100,
      "Тем": 6101,
      "аку": 6102,
      "авто": 6103,
      "бка": 6104,
      "бку": 6105,
      "брю": 6106,
      "введе": 6107,
      "гнуть": 6108,
      "дную": 6109,
      "двое": 6110,
      "емое": 6111,
      "жнее": 6112,
      "зри": 6113,
      "звала": 6114,
      "иде": 6115,
      "кей": 6116,
      "лку": 6117,
      "нскому": 6118,
      "нское": 6119,
      "опро": 6120,
      "опи": 6121,
      "овла": 6122,
      "ссе": 6123,
      "сны": 6124,
      "считала": 6125,
      "тк": 6126,
      "уто": 6127,
      "упал": 6128,
      "убор": 6129,
      "што": 6130,
      "шали": 6131,
      "щалась": 6132,
      "щности": 6133,
      "топ": 6134,
      "тору": 6135,
      "нави": 6136,
      "нашло": 6137,
      "настолько": 6138,
      "наверху": 6139,
      "набок": 6140,
      "недел": 6141,
      "нездоро": 6142,
      "недели": 6143,
      "нерешительно": 6144,
      "несчастлива": 6145,
      "поя": 6146,
      "почи": 6147,
      "пожала": 6148,
      "повел": 6149,
      "поехали": 6150,
      "показывая": 6151,
      "попросил": 6152,
      "коре": 6153,
      "нину": 6154,
      "кад": 6155,
      "каса": 6156,
      "кажду": 6157,
      "карье": 6158,
      "вок": 6159,
      "роман": 6160,
      "рако": 6161,
      "раба": 6162,
      "рады": 6163,
      "реки": 6164,
      "рением": 6165,
      "ревни": 6166,
      "вино": 6167,
      "рит": 6168,
      "рился": 6169,
      "лови": 6170,
      "бывал": 6171,
      "бывают": 6172,
      "ливым": 6173,
      "вавшийся": 6174,
      "вающим": 6175,
      "веру": 6176,
      "сестрой": 6177,
      "запре": 6178,
      "загла": 6179,
      "засте": 6180,
      "заинтересо": 6181,
      "запут": 6182,
      "летом": 6183,
      "отче": 6184,
      "оттол": 6185,
      "оттуда": 6186,
      "дают": 6187,
      "теп": 6188,
      "тепло": 6189,
      "депе": 6190,
      "чена": 6191,
      "чести": 6192,
      "ченным": 6193,
      "ченного": 6194,
      "мокры": 6195,
      "киды": 6196,
      "выле": 6197,
      "выте": 6198,
      "выдержи": 6199,
      "выходили": 6200,
      "проле": 6201,
      "див": 6202,
      "дился": 6203,
      "прист": 6204,
      "приходи": 6205,
      "придумать": 6206,
      "причина": 6207,
      "бежа": 6208,
      "пен": 6209,
      "боко": 6210,
      "боясь": 6211,
      "няни": 6212,
      "садил": 6213,
      "ходу": 6214,
      "мар": 6215,
      "мами": 6216,
      "махая": 6217,
      "станет": 6218,
      "делы": 6219,
      "купил": 6220,
      "стого": 6221,
      "стокра": 6222,
      "чины": 6223,
      "разрез": 6224,
      "разделе": 6225,
      "развяз": 6226,
      "еев": 6227,
      "рыз": 6228,
      "прер": 6229,
      "преда": 6230,
      "преодо": 6231,
      "преступле": 6232,
      "щенный": 6233,
      "избы": 6234,
      "луг": 6235,
      "вству": 6236,
      "чут": 6237,
      "паро": 6238,
      "говорим": 6239,
      "подми": 6240,
      "подала": 6241,
      "подходили": 6242,
      "туго": 6243,
      "жат": 6244,
      "гиб": 6245,
      "гиваясь": 6246,
      "пита": 6247,
      "тельную": 6248,
      "спорить": 6249,
      "барина": 6250,
      "друзей": 6251,
      "шаг": 6252,
      "вуал": 6253,
      "глад": 6254,
      "перестала": 6255,
      "перенес": 6256,
      "рассказ": 6257,
      "расчет": 6258,
      "дыша": 6259,
      "долг": 6260,
      "детства": 6261,
      "слом": 6262,
      "компа": 6263,
      "тельности": 6264,
      "большая": 6265,
      "вною": 6266,
      "езде": 6267,
      "ездить": 6268,
      "ездила": 6269,
      "Пока": 6270,
      "Посмотри": 6271,
      "Поедем": 6272,
      "возвыше": 6273,
      "смотрю": 6274,
      "странные": 6275,
      "странным": 6276,
      "положить": 6277,
      "ждением": 6278,
      "брак": 6279,
      "стоять": 6280,
      "оставшись": 6281,
      "думают": 6282,
      "ились": 6283,
      "улыбки": 6284,
      "улыбке": 6285,
      "улыбнуться": 6286,
      "тянула": 6287,
      "пыль": 6288,
      "вятся": 6289,
      "жую": 6290,
      "самою": 6291,
      "Народ": 6292,
      "блеском": 6293,
      "войне": 6294,
      "обер": 6295,
      "замечая": 6296,
      "заметить": 6297,
      "полно": 6298,
      "одних": 6299,
      "разговором": 6300,
      "лучшего": 6301,
      "надви": 6302,
      "надца": 6303,
      "твор": 6304,
      "твоего": 6305,
      "молока": 6306,
      "резуль": 6307,
      "позволь": 6308,
      "женщине": 6309,
      "взялась": 6310,
      "желанием": 6311,
      "кров": 6312,
      "Тоже": 6313,
      "словам": 6314,
      "черта": 6315,
      "черты": 6316,
      "черных": 6317,
      "умень": 6318,
      "двиг": 6319,
      "спокойный": 6320,
      "Ради": 6321,
      "двадцати": 6322,
      "умно": 6323,
      "умела": 6324,
      "остановиться": 6325,
      "остановились": 6326,
      "водил": 6327,
      "Заме": 6328,
      "крепост": 6329,
      "гордости": 6330,
      "веселом": 6331,
      "хозяйству": 6332,
      "пойдет": 6333,
      "душен": 6334,
      "душенька": 6335,
      "плеши": 6336,
      "Воспомина": 6337,
      "тропи": 6338,
      "правила": 6339,
      "правитель": 6340,
      "лицами": 6341,
      "деревь": 6342,
      "Оттого": 6343,
      "длинную": 6344,
      "Варенькой": 6345,
      "поднять": 6346,
      "анта": 6347,
      "кончила": 6348,
      "простое": 6349,
      "Николае": 6350,
      "толпы": 6351,
      "корпу": 6352,
      "видим": 6353,
      "мерно": 6354,
      "находила": 6355,
      "заняты": 6356,
      "доброго": 6357,
      "колени": 6358,
      "материаль": 6359,
      "испор": 6360,
      "простил": 6361,
      "простила": 6362,
      "знакомыми": 6363,
      "завидо": 6364,
      "сердиться": 6365,
      "тонкою": 6366,
      "охоты": 6367,
      "охотников": 6368,
      "хваты": 6369,
      "начале": 6370,
      "значении": 6371,
      "Карениной": 6372,
      "Карениных": 6373,
      "пальцы": 6374,
      "пальцем": 6375,
      "признавал": 6376,
      "новом": 6377,
      "злобы": 6378,
      "телеги": 6379,
      "скрылся": 6380,
      "устрое": 6381,
      "целовать": 6382,
      "перебирая": 6383,
      "подробностей": 6384,
      "помещика": 6385,
      "балко": 6386,
      "столко": 6387,
      "ющийся": 6388,
      "запиской": 6389,
      "Ивановичем": 6390,
      "убий": 6391,
      "называла": 6392,
      "поражен": 6393,
      "потребо": 6394,
      "Васеньку": 6395,
      "становится": 6396,
      "спуска": 6397,
      "общих": 6398,
      "Пари": 6399,
      "возьму": 6400,
      "возьме": 6401,
      "фигура": 6402,
      "явился": 6403,
      "закона": 6404,
      "соединя": 6405,
      "бумаж": 6406,
      "пытался": 6407,
      "Хоть": 6408,
      "огромные": 6409,
      "поводья": 6410,
      "семейной": 6411,
      "Лакей": 6412,
      "бородой": 6413,
      "учения": 6414,
      "закрыв": 6415,
      "ine": 6416,
      "Сам": 6417,
      "водах": 6418,
      "приказчика": 6419,
      "белом": 6420,
      "успеха": 6421,
      "товарищ": 6422,
      "товарищей": 6423,
      "действовал": 6424,
      "действовало": 6425,
      "десятин": 6426,
      "показал": 6427,
      "показались": 6428,
      "службы": 6429,
      "гадко": 6430,
      "англичанка": 6431,
      "лестницы": 6432,
      "отъездом": 6433,
      "мгновенье": 6434,
      "половину": 6435,
      "вздохнула": 6436,
      "опустил": 6437,
      "опустила": 6438,
      "происходит": 6439,
      "отвращение": 6440,
      "отвращением": 6441,
      "нужные": 6442,
      "основания": 6443,
      "Знаете": 6444,
      "понравилось": 6445,
      "вызва": 6446,
      "Между": 6447,
      "естествен": 6448,
      "тихим": 6449,
      "середину": 6450,
      "руковод": 6451,
      "рубашку": 6452,
      "поездки": 6453,
      "членов": 6454,
      "вальдшне": 6455,
      "характера": 6456,
      "подозвал": 6457,
      "спальне": 6458,
      "выгодно": 6459,
      "встретиться": 6460,
      "ard": 6461,
      "адвоката": 6462,
      "явление": 6463,
      "Пожалуйте": 6464,
      "XIV": 6465,
      "назвать": 6466,
      "рукав": 6467,
      "принесли": 6468,
      "барыш": 6469,
      "хлопо": 6470,
      "мечта": 6471,
      "Ребе": 6472,
      "пчель": 6473,
      "борьбы": 6474,
      "объявил": 6475,
      "устройство": 6476,
      "рабочие": 6477,
      "притворяться": 6478,
      "ваемое": 6479,
      "Оставшись": 6480,
      "опоздал": 6481,
      "умоляю": 6482,
      "секунд": 6483,
      "окончательно": 6484,
      "театр": 6485,
      "пятидесяти": 6486,
      "туале": 6487,
      "Тушкеви": 6488,
      "задумчиво": 6489,
      "доказывает": 6490,
      "гибаясь": 6491,
      "огонь": 6492,
      "шлюпи": 6493,
      "некстати": 6494,
      "жарко": 6495,
      "равнодушие": 6496,
      "Туровцын": 6497,
      "Туровцына": 6498,
      "Гладиатора": 6499,
      "направился": 6500,
      "гулять": 6501,
      "Должно": 6502,
      "тяжесть": 6503,
      "бледне": 6504,
      "приказчику": 6505,
      "усталости": 6506,
      "дуэли": 6507,
      "Слава": 6508,
      "поступок": 6509,
      "преимущественно": 6510,
      "княжне": 6511,
      "генерал": 6512,
      "платформе": 6513,
      "аристокра": 6514,
      "либераль": 6515,
      "указал": 6516,
      "облокотившись": 6517,
      "живописи": 6518,
      "сравнении": 6519,
      "Пилата": 6520,
      "баллотироваться": 6521,
      "Капитоныч": 6522,
      "циональ": 6523,
      "благополучно": 6524,
      "каждую": 6525,
      "Il": 6526,
      "ll": 6527,
      "os": 6528,
      "ot": 6529,
      "Але": 6530,
      "Егор": 6531,
      "Здоро": 6532,
      "Здра": 6533,
      "Мужи": 6534,
      "Уди": 6535,
      "Фо": 6536,
      "ай": 6537,
      "ах": 6538,
      "вело": 6539,
      "вный": 6540,
      "вник": 6541,
      "дясь": 6542,
      "дались": 6543,
      "еже": 6544,
      "емого": 6545,
      "жную": 6546,
      "звал": 6547,
      "иро": 6548,
      "ищу": 6549,
      "крю": 6550,
      "лле": 6551,
      "лали": 6552,
      "лке": 6553,
      "нкой": 6554,
      "ог": 6555,
      "опыт": 6556,
      "сль": 6557,
      "спусти": 6558,
      "тные": 6559,
      "усы": 6560,
      "указа": 6561,
      "уеду": 6562,
      "фона": 6563,
      "чон": 6564,
      "чком": 6565,
      "чались": 6566,
      "член": 6567,
      "шало": 6568,
      "шалась": 6569,
      "щало": 6570,
      "ющей": 6571,
      "точку": 6572,
      "напа": 6573,
      "нашу": 6574,
      "наказать": 6575,
      "нен": 6576,
      "нешь": 6577,
      "неяс": 6578,
      "некраси": 6579,
      "несправедли": 6580,
      "недалеко": 6581,
      "нетерпе": 6582,
      "несколь": 6583,
      "погла": 6584,
      "посвя": 6585,
      "полюбил": 6586,
      "поверх": 6587,
      "поверил": 6588,
      "погло": 6589,
      "попросила": 6590,
      "коше": 6591,
      "ковер": 6592,
      "кочка": 6593,
      "ниц": 6594,
      "кашля": 6595,
      "каблу": 6596,
      "вож": 6597,
      "водой": 6598,
      "рай": 6599,
      "растя": 6600,
      "реша": 6601,
      "рину": 6602,
      "ложу": 6603,
      "ладо": 6604,
      "лист": 6605,
      "вара": 6606,
      "ваем": 6607,
      "вании": 6608,
      "вея": 6609,
      "сев": 6610,
      "сего": 6611,
      "семе": 6612,
      "седь": 6613,
      "седыми": 6614,
      "жено": 6615,
      "жест": 6616,
      "зары": 6617,
      "заглу": 6618,
      "заговорили": 6619,
      "засмеялся": 6620,
      "дотро": 6621,
      "отдела": 6622,
      "дар": 6623,
      "дано": 6624,
      "даго": 6625,
      "тему": 6626,
      "онь": 6627,
      "ческом": 6628,
      "мест": 6629,
      "меди": 6630,
      "тиз": 6631,
      "тиши": 6632,
      "высу": 6633,
      "выходи": 6634,
      "вышло": 6635,
      "соболез": 6636,
      "сочувстви": 6637,
      "скарла": 6638,
      "скачках": 6639,
      "нут": 6640,
      "нусь": 6641,
      "нуме": 6642,
      "пропа": 6643,
      "продать": 6644,
      "проходя": 6645,
      "промах": 6646,
      "дире": 6647,
      "дилась": 6648,
      "приду": 6649,
      "привет": 6650,
      "привести": 6651,
      "принимая": 6652,
      "придвор": 6653,
      "безна": 6654,
      "бедно": 6655,
      "дупел": 6656,
      "пери": 6657,
      "педаго": 6658,
      "онах": 6659,
      "шести": 6660,
      "шеей": 6661,
      "сада": 6662,
      "стах": 6663,
      "ставь": 6664,
      "стакан": 6665,
      "жима": 6666,
      "купле": 6667,
      "купец": 6668,
      "стос": 6669,
      "знания": 6670,
      "знаем": 6671,
      "сидя": 6672,
      "разли": 6673,
      "разда": 6674,
      "развлек": 6675,
      "разрешение": 6676,
      "разрешения": 6677,
      "рыда": 6678,
      "предоставля": 6679,
      "сконе": 6680,
      "измуче": 6681,
      "издалека": 6682,
      "стья": 6683,
      "буль": 6684,
      "лектри": 6685,
      "чудо": 6686,
      "рьер": 6687,
      "мых": 6688,
      "мышле": 6689,
      "били": 6690,
      "пив": 6691,
      "спор": 6692,
      "верхо": 6693,
      "верхом": 6694,
      "бара": 6695,
      "друзь": 6696,
      "шап": 6697,
      "перевер": 6698,
      "перенести": 6699,
      "перекрести": 6700,
      "расстраи": 6701,
      "распростра": 6702,
      "гушо": 6703,
      "следить": 6704,
      "практи": 6705,
      "Александр": 6706,
      "путем": 6707,
      "детях": 6708,
      "предполага": 6709,
      "Андре": 6710,
      "тельною": 6711,
      "больным": 6712,
      "Кирил": 6713,
      "неесте": 6714,
      "Поме": 6715,
      "жалел": 6716,
      "жалею": 6717,
      "дях": 6718,
      "служи": 6719,
      "служил": 6720,
      "цену": 6721,
      "голосе": 6722,
      "вление": 6723,
      "просит": 6724,
      "женную": 6725,
      "оставался": 6726,
      "останов": 6727,
      "Нужно": 6728,
      "шубу": 6729,
      "шутя": 6730,
      "исправи": 6731,
      "княжной": 6732,
      "свечу": 6733,
      "Дома": 6734,
      "ктора": 6735,
      "конду": 6736,
      "контору": 6737,
      "стула": 6738,
      "стуле": 6739,
      "студи": 6740,
      "имея": 6741,
      "поняли": 6742,
      "собесед": 6743,
      "Ивановне": 6744,
      "первом": 6745,
      "Натали": 6746,
      "действует": 6747,
      "сном": 6748,
      "обеде": 6749,
      "обеду": 6750,
      "обеих": 6751,
      "обедал": 6752,
      "двести": 6753,
      "полковой": 6754,
      "одними": 6755,
      "встречая": 6756,
      "лучший": 6757,
      "большею": 6758,
      "решив": 6759,
      "решиться": 6760,
      "стыми": 6761,
      "кругу": 6762,
      "чью": 6763,
      "молоде": 6764,
      "молодая": 6765,
      "Моя": 6766,
      "никам": 6767,
      "приятнее": 6768,
      "женщинам": 6769,
      "бота": 6770,
      "хозяи": 6771,
      "увидела": 6772,
      "ставили": 6773,
      "вторых": 6774,
      "молчали": 6775,
      "умереть": 6776,
      "движе": 6777,
      "получу": 6778,
      "остановил": 6779,
      "блаже": 6780,
      "знакомую": 6781,
      "слышался": 6782,
      "слышались": 6783,
      "крики": 6784,
      "водить": 6785,
      "читали": 6786,
      "твердым": 6787,
      "последних": 6788,
      "поймал": 6789,
      "готова": 6790,
      "работе": 6791,
      "работал": 6792,
      "счастливый": 6793,
      "Отве": 6794,
      "возможность": 6795,
      "дливо": 6796,
      "рюм": 6797,
      "оглянувшись": 6798,
      "переднюю": 6799,
      "анг": 6800,
      "волнением": 6801,
      "спала": 6802,
      "каждой": 6803,
      "каждая": 6804,
      "каждого": 6805,
      "дурной": 6806,
      "сделан": 6807,
      "быстротой": 6808,
      "шедший": 6809,
      "Облонскому": 6810,
      "неприятным": 6811,
      "произвел": 6812,
      "бросила": 6813,
      "бросил": 6814,
      "ребенку": 6815,
      "ясности": 6816,
      "стариком": 6817,
      "держивая": 6818,
      "недоступ": 6819,
      "колеб": 6820,
      "колес": 6821,
      "Мысль": 6822,
      "Пройдя": 6823,
      "жалость": 6824,
      "маленьких": 6825,
      "давни": 6826,
      "книгой": 6827,
      "водку": 6828,
      "семья": 6829,
      "семнадцать": 6830,
      "приняло": 6831,
      "признаки": 6832,
      "францу": 6833,
      "свист": 6834,
      "скрывать": 6835,
      "можем": 6836,
      "дверью": 6837,
      "горяче": 6838,
      "воспоминанием": 6839,
      "подробностях": 6840,
      "учителя": 6841,
      "представлял": 6842,
      "представляла": 6843,
      "приезжал": 6844,
      "существа": 6845,
      "считая": 6846,
      "определенно": 6847,
      "Щербацким": 6848,
      "рассказывала": 6849,
      "Кучер": 6850,
      "смутно": 6851,
      "Яшвина": 6852,
      "слыхал": 6853,
      "слыхала": 6854,
      "блестящие": 6855,
      "iselle": 6856,
      "губернский": 6857,
      "известные": 6858,
      "белым": 6859,
      "седло": 6860,
      "Стиву": 6861,
      "милости": 6862,
      "ere": 6863,
      "отворилась": 6864,
      "уезжать": 6865,
      "победи": 6866,
      "вашею": 6867,
      "веселые": 6868,
      "явились": 6869,
      "невест": 6870,
      "неверу": 6871,
      "бумажку": 6872,
      "посред": 6873,
      "поцеловав": 6874,
      "картина": 6875,
      "возвращения": 6876,
      "прелести": 6877,
      "палец": 6878,
      "вагоне": 6879,
      "болот": 6880,
      "Марьи": 6881,
      "возбужда": 6882,
      "намерен": 6883,
      "намерение": 6884,
      "березы": 6885,
      "избегал": 6886,
      "отогнать": 6887,
      "дождя": 6888,
      "demo": 6889,
      "согласие": 6890,
      "гадки": 6891,
      "лакеев": 6892,
      "хорошем": 6893,
      "Иванычем": 6894,
      "собаку": 6895,
      "нужным": 6896,
      "обещала": 6897,
      "Прекрасно": 6898,
      "города": 6899,
      "столовой": 6900,
      "судья": 6901,
      "судьба": 6902,
      "честным": 6903,
      "проснулся": 6904,
      "проснулась": 6905,
      "грязь": 6906,
      "недовольна": 6907,
      "недовольно": 6908,
      "извини": 6909,
      "перемены": 6910,
      "ножки": 6911,
      "рубашки": 6912,
      "следует": 6913,
      "быстрыми": 6914,
      "разговаривал": 6915,
      "забол": 6916,
      "вступить": 6917,
      "истории": 6918,
      "танцу": 6919,
      "торжество": 6920,
      "искусство": 6921,
      "вечеру": 6922,
      "характе": 6923,
      "глубины": 6924,
      "расположение": 6925,
      "ревность": 6926,
      "мешали": 6927,
      "удивляюсь": 6928,
      "гриб": 6929,
      "хлеб": 6930,
      "поправить": 6931,
      "приготовления": 6932,
      "вшемся": 6933,
      "насмешливою": 6934,
      "познакомиться": 6935,
      "кофею": 6936,
      "дрожащим": 6937,
      "веселее": 6938,
      "повере": 6939,
      "машина": 6940,
      "воспитание": 6941,
      "Пись": 6942,
      "Тверская": 6943,
      "наслаждение": 6944,
      "голуб": 6945,
      "поразило": 6946,
      "христиа": 6947,
      "непонятно": 6948,
      "объявить": 6949,
      "устройства": 6950,
      "Другое": 6951,
      "единственное": 6952,
      "осуждать": 6953,
      "заключил": 6954,
      "музыки": 6955,
      "произошла": 6956,
      "приготовить": 6957,
      "Львова": 6958,
      "театре": 6959,
      "терпеть": 6960,
      "Христос": 6961,
      "угадала": 6962,
      "сюртук": 6963,
      "Воздви": 6964,
      "поклон": 6965,
      "туалет": 6966,
      "наполня": 6967,
      "камерди": 6968,
      "задумчи": 6969,
      "гимнасти": 6970,
      "стрицы": 6971,
      "кататься": 6972,
      "Кознышева": 6973,
      "невозможным": 6974,
      "раздражило": 6975,
      "гувернанткой": 6976,
      "звезды": 6977,
      "усталы": 6978,
      "отрицательно": 6979,
      "дуэль": 6980,
      "предлага": 6981,
      "убежден": 6982,
      "Федор": 6983,
      "сигару": 6984,
      "чиновник": 6985,
      "выступили": 6986,
      "признаюсь": 6987,
      "Неведовский": 6988,
      "конюш": 6989,
      "Россию": 6990,
      "пользоваться": 6991,
      "Взгля": 6992,
      "Мальчик": 6993,
      "влюбиться": 6994,
      "пшеницу": 6995,
      "подходившего": 6996,
      "вспыхнув": 6997,
      "Француз": 6998,
      "похвал": 6999,
      "архите": 7000,
      "Извините": 7001,
      "кормилицы": 7002,
      "элегант": 7003,
      "тщетно": 7004,
      "походкой": 7005,
      "воскре": 7006,
      "кучеру": 7007,
      "философии": 7008,
      "Священ": 7009,
      "напрасно": 7010,
      "любуясь": 7011,
      "рассеянно": 7012,
      "террасу": 7013,
      "фразы": 7014,
      "Воркуев": 7015,
      "Ергушо": 7016,
      "подушку": 7017,
      "пугови": 7018,
      "Надеюсь": 7019,
      "образуется": 7020,
      "Павловна": 7021,
      "вангели": 7022,
      "Девочка": 7023,
      "превосходительство": 7024,
      "панталонах": 7025,
      "акуше": 7026,
      "неделю": 7027,
      "преступление": 7028,
      "результа": 7029,
      "Здравству": 7030,
      "скарлати": 7031,
      "demoiselle": 7032,
      "IV": 7033,
      "IX": 7034,
      "Maman": 7035,
      "VI": 7036,
      "VII": 7037,
      "VIII": 7038,
      "XII": 7039,
      "XIII": 7040,
      "pet": 7041,
      "ve": 7042,
      "vo": 7043,
      "АС": 7044,
      "Ани": 7045,
      "Бал": 7046,
      "Бар": 7047,
      "Вре": 7048,
      "Всю": 7049,
      "Две": 7050,
      "Много": 7051,
      "Обе": 7052,
      "Пря": 7053,
      "Пар": 7054,
      "Рез": 7055,
      "Су": 7056,
      "Сто": 7057,
      "Стра": 7058,
      "Улы": 7059,
      "ЧАС": 7060,
      "арти": 7061,
      "анало": 7062,
      "бало": 7063,
      "брыз": 7064,
      "вверх": 7065,
      "дта": 7066,
      "дных": 7067,
      "ева": 7068,
      "жками": 7069,
      "жались": 7070,
      "зала": 7071,
      "ие": 7072,
      "иска": 7073,
      "ймы": 7074,
      "кнуть": 7075,
      "кверху": 7076,
      "кнули": 7077,
      "лгать": 7078,
      "нта": 7079,
      "нду": 7080,
      "нчи": 7081,
      "ннее": 7082,
      "нзи": 7083,
      "нской": 7084,
      "оказы": 7085,
      "рской": 7086,
      "сжимая": 7087,
      "сморщи": 7088,
      "ути": 7089,
      "упа": 7090,
      "уходи": 7091,
      "услу": 7092,
      "уговари": 7093,
      "уходить": 7094,
      "ухом": 7095,
      "упру": 7096,
      "упала": 7097,
      "угло": 7098,
      "удержаться": 7099,
      "фанта": 7100,
      "хво": 7101,
      "ццо": 7102,
      "чна": 7103,
      "чко": 7104,
      "чти": 7105,
      "шний": 7106,
      "шках": 7107,
      "ъехав": 7108,
      "эк": 7109,
      "электри": 7110,
      "юбо": 7111,
      "наря": 7112,
      "надолго": 7113,
      "наших": 7114,
      "насквозь": 7115,
      "нетер": 7116,
      "невиди": 7117,
      "непривы": 7118,
      "неторопливо": 7119,
      "стем": 7120,
      "стный": 7121,
      "пото": 7122,
      "побы": 7123,
      "поте": 7124,
      "поки": 7125,
      "поди": 7126,
      "пожи": 7127,
      "погля": 7128,
      "попы": 7129,
      "покое": 7130,
      "получ": 7131,
      "поехать": 7132,
      "поху": 7133,
      "потол": 7134,
      "попал": 7135,
      "погода": 7136,
      "поверить": 7137,
      "покори": 7138,
      "поцелу": 7139,
      "постыдно": 7140,
      "построй": 7141,
      "покуп": 7142,
      "поглядел": 7143,
      "подумай": 7144,
      "ково": 7145,
      "коров": 7146,
      "ницей": 7147,
      "кат": 7148,
      "качества": 7149,
      "вон": 7150,
      "воза": 7151,
      "воле": 7152,
      "роды": 7153,
      "роятно": 7154,
      "расте": 7155,
      "рациональ": 7156,
      "реке": 7157,
      "рий": 7158,
      "рились": 7159,
      "бывший": 7160,
      "варень": 7161,
      "вавшие": 7162,
      "ваших": 7163,
      "вавшему": 7164,
      "сесть": 7165,
      "сенье": 7166,
      "сестер": 7167,
      "жереб": 7168,
      "заде": 7169,
      "заты": 7170,
      "заря": 7171,
      "загля": 7172,
      "заез": 7173,
      "затре": 7174,
      "заговорить": 7175,
      "заехал": 7176,
      "захотелось": 7177,
      "заведе": 7178,
      "замолчал": 7179,
      "заклады": 7180,
      "застен": 7181,
      "зажег": 7182,
      "леть": 7183,
      "лете": 7184,
      "ления": 7185,
      "легла": 7186,
      "левую": 7187,
      "лекар": 7188,
      "дото": 7189,
      "допу": 7190,
      "докла": 7191,
      "отло": 7192,
      "отте": 7193,
      "отвле": 7194,
      "отказа": 7195,
      "оттал": 7196,
      "отвернулся": 7197,
      "отдыха": 7198,
      "отдался": 7199,
      "отказаться": 7200,
      "даю": 7201,
      "даму": 7202,
      "давали": 7203,
      "давало": 7204,
      "девич": 7205,
      "чены": 7206,
      "ческою": 7207,
      "мучать": 7208,
      "мери": 7209,
      "мона": 7210,
      "моим": 7211,
      "тием": 7212,
      "титуляр": 7213,
      "мите": 7214,
      "таться": 7215,
      "выби": 7216,
      "выгля": 7217,
      "выговорил": 7218,
      "выздоро": 7219,
      "выступ": 7220,
      "выпить": 7221,
      "выступа": 7222,
      "выходит": 7223,
      "выходило": 7224,
      "выпил": 7225,
      "выстр": 7226,
      "соз": 7227,
      "соро": 7228,
      "сообще": 7229,
      "прош": 7230,
      "прото": 7231,
      "проще": 7232,
      "проек": 7233,
      "пронзи": 7234,
      "дим": 7235,
      "дило": 7236,
      "прис": 7237,
      "приш": 7238,
      "припа": 7239,
      "принимал": 7240,
      "приемы": 7241,
      "приподнял": 7242,
      "прислать": 7243,
      "беспоко": 7244,
      "бегали": 7245,
      "бесконе": 7246,
      "пес": 7247,
      "бокал": 7248,
      "сажи": 7249,
      "сапоги": 7250,
      "махивая": 7251,
      "жива": 7252,
      "нностей": 7253,
      "куша": 7254,
      "курить": 7255,
      "сток": 7256,
      "обсу": 7257,
      "обнял": 7258,
      "чив": 7259,
      "чила": 7260,
      "раздумал": 7261,
      "различ": 7262,
      "развлека": 7263,
      "раздался": 7264,
      "еет": 7265,
      "рывая": 7266,
      "говоры": 7267,
      "говором": 7268,
      "стинк": 7269,
      "преследо": 7270,
      "щество": 7271,
      "Левиных": 7272,
      "лугу": 7273,
      "буты": 7274,
      "чул": 7275,
      "чую": 7276,
      "говорив": 7277,
      "емую": 7278,
      "подно": 7279,
      "подда": 7280,
      "подбо": 7281,
      "подразуме": 7282,
      "туре": 7283,
      "лыми": 7284,
      "гип": 7285,
      "бильяр": 7286,
      "гают": 7287,
      "спора": 7288,
      "спорили": 7289,
      "верт": 7290,
      "верте": 7291,
      "баш": 7292,
      "бабы": 7293,
      "шах": 7294,
      "шагу": 7295,
      "шательство": 7296,
      "шагах": 7297,
      "жном": 7298,
      "жности": 7299,
      "перегля": 7300,
      "расходи": 7301,
      "расстоя": 7302,
      "расспрашивал": 7303,
      "расстрой": 7304,
      "делай": 7305,
      "Дамы": 7306,
      "правой": 7307,
      "дывая": 7308,
      "слись": 7309,
      "пустя": 7310,
      "пунк": 7311,
      "сущности": 7312,
      "долгу": 7313,
      "предпринять": 7314,
      "слома": 7315,
      "Кате": 7316,
      "Катя": 7317,
      "Карта": 7318,
      "очек": 7319,
      "малы": 7320,
      "болью": 7321,
      "смел": 7322,
      "жалу": 7323,
      "дят": 7324,
      "вози": 7325,
      "скром": 7326,
      "случалось": 7327,
      "цен": 7328,
      "цепля": 7329,
      "странная": 7330,
      "нимала": 7331,
      "альным": 7332,
      "хорошая": 7333,
      "хороших": 7334,
      "далее": 7335,
      "пятьдесят": 7336,
      "смеи": 7337,
      "обраще": 7338,
      "обратил": 7339,
      "свечи": 7340,
      "свету": 7341,
      "концу": 7342,
      "конфет": 7343,
      "пывая": 7344,
      "жут": 7345,
      "перели": 7346,
      "красоту": 7347,
      "весна": 7348,
      "весны": 7349,
      "крыши": 7350,
      "Вась": 7351,
      "Варя": 7352,
      "безо": 7353,
      "Надень": 7354,
      "сношения": 7355,
      "планов": 7356,
      "платок": 7357,
      "рель": 7358,
      "полной": 7359,
      "выражении": 7360,
      "разговору": 7361,
      "лучшие": 7362,
      "твоему": 7363,
      "Можно": 7364,
      "позо": 7365,
      "Выйдя": 7366,
      "кроше": 7367,
      "Тол": 7368,
      "подождать": 7369,
      "радовалась": 7370,
      "будьте": 7371,
      "Вероятно": 7372,
      "увижу": 7373,
      "вторую": 7374,
      "черту": 7375,
      "ближ": 7376,
      "близи": 7377,
      "спокойнее": 7378,
      "улыбаться": 7379,
      "получал": 7380,
      "стям": 7381,
      "враг": 7382,
      "остановить": 7383,
      "знакомого": 7384,
      "интересов": 7385,
      "слышали": 7386,
      "груп": 7387,
      "гордо": 7388,
      "горда": 7389,
      "веселою": 7390,
      "веселого": 7391,
      "последнего": 7392,
      "обычным": 7393,
      "смотрят": 7394,
      "плед": 7395,
      "племян": 7396,
      "графиней": 7397,
      "мужику": 7398,
      "мужиком": 7399,
      "пустила": 7400,
      "Вол": 7401,
      "Войдя": 7402,
      "Вопрос": 7403,
      "правил": 7404,
      "станцию": 7405,
      "длинный": 7406,
      "величи": 7407,
      "противны": 7408,
      "доктору": 7409,
      "свойственною": 7410,
      "редкие": 7411,
      "каждому": 7412,
      "каждым": 7413,
      "совета": 7414,
      "советую": 7415,
      "дурным": 7416,
      "дурная": 7417,
      "дурное": 7418,
      "шедшая": 7419,
      "шедшим": 7420,
      "шедших": 7421,
      "Облонским": 7422,
      "неприятного": 7423,
      "произвели": 7424,
      "спит": 7425,
      "надевая": 7426,
      "гостиницы": 7427,
      "находились": 7428,
      "старику": 7429,
      "объяснил": 7430,
      "громким": 7431,
      "долгом": 7432,
      "высовы": 7433,
      "удовольствий": 7434,
      "окну": 7435,
      "Мысли": 7436,
      "маленькое": 7437,
      "маленького": 7438,
      "привычку": 7439,
      "ствуют": 7440,
      "обыкновению": 7441,
      "обыкновенного": 7442,
      "светских": 7443,
      "тонкий": 7444,
      "определя": 7445,
      "охоте": 7446,
      "убеждения": 7447,
      "начался": 7448,
      "оборо": 7449,
      "Карениным": 7450,
      "найду": 7451,
      "пальца": 7452,
      "русском": 7453,
      "унижение": 7454,
      "унижения": 7455,
      "ногие": 7456,
      "новому": 7457,
      "новости": 7458,
      "злой": 7459,
      "ступить": 7460,
      "свободе": 7461,
      "свободно": 7462,
      "скрывая": 7463,
      "видны": 7464,
      "видали": 7465,
      "позвонил": 7466,
      "нравится": 7467,
      "представлялась": 7468,
      "приезжай": 7469,
      "старым": 7470,
      "считает": 7471,
      "раздража": 7472,
      "высоту": 7473,
      "прежнего": 7474,
      "определенное": 7475,
      "называть": 7476,
      "начинать": 7477,
      "начинается": 7478,
      "дворяне": 7479,
      "поезда": 7480,
      "сиятельство": 7481,
      "благодарен": 7482,
      "исполне": 7483,
      "исполнить": 7484,
      "Голенищеву": 7485,
      "целе": 7486,
      "неприятности": 7487,
      "белый": 7488,
      "становилась": 7489,
      "счастие": 7490,
      "забота": 7491,
      "отворачи": 7492,
      "вающего": 7493,
      "вашем": 7494,
      "солн": 7495,
      "фигуре": 7496,
      "Была": 7497,
      "законы": 7498,
      "невесту": 7499,
      "серьезное": 7500,
      "огромное": 7501,
      "поворо": 7502,
      "семейство": 7503,
      "семейные": 7504,
      "бирать": 7505,
      "поцеловать": 7506,
      "узнавал": 7507,
      "страшный": 7508,
      "вообража": 7509,
      "официаль": 7510,
      "ягдта": 7511,
      "напряжение": 7512,
      "напряжения": 7513,
      "Одни": 7514,
      "воспиты": 7515,
      "заниматься": 7516,
      "крыльями": 7517,
      "выборов": 7518,
      "верования": 7519,
      "дождь": 7520,
      "презрения": 7521,
      "переставал": 7522,
      "противоречи": 7523,
      "вкус": 7524,
      "партию": 7525,
      "деревня": 7526,
      "уголь": 7527,
      "отъезду": 7528,
      "насмешки": 7529,
      "половина": 7530,
      "близко": 7531,
      "близких": 7532,
      "соображений": 7533,
      "ярко": 7534,
      "отвращения": 7535,
      "ночью": 7536,
      "смеяться": 7537,
      "глупости": 7538,
      "недостаток": 7539,
      "недостатки": 7540,
      "Старый": 7541,
      "играя": 7542,
      "вызвать": 7543,
      "lais": 7544,
      "Место": 7545,
      "недовольство": 7546,
      "извините": 7547,
      "рассуждения": 7548,
      "шутливо": 7549,
      "земледели": 7550,
      "ошибка": 7551,
      "ошибся": 7552,
      "одобря": 7553,
      "одобрял": 7554,
      "снисходи": 7555,
      "употребле": 7556,
      "цветами": 7557,
      "поездку": 7558,
      "члена": 7559,
      "презирал": 7560,
      "главным": 7561,
      "Серпуховского": 7562,
      "постель": 7563,
      "показывать": 7564,
      "развития": 7565,
      "вступа": 7566,
      "пускать": 7567,
      "встречаться": 7568,
      "история": 7569,
      "жениха": 7570,
      "телом": 7571,
      "искусства": 7572,
      "великодуш": 7573,
      "палаццо": 7574,
      "дамам": 7575,
      "дамами": 7576,
      "мешочек": 7577,
      "прошлом": 7578,
      "встретили": 7579,
      "встретились": 7580,
      "удивляясь": 7581,
      "петербургского": 7582,
      "XVI": 7583,
      "XVII": 7584,
      "XVIII": 7585,
      "наблюде": 7586,
      "наблюдения": 7587,
      "тяжелее": 7588,
      "движениями": 7589,
      "приближение": 7590,
      "купца": 7591,
      "убедился": 7592,
      "XIX": 7593,
      "кофей": 7594,
      "привезла": 7595,
      "пригласил": 7596,
      "машины": 7597,
      "живут": 7598,
      "дьяко": 7599,
      "увидит": 7600,
      "увидимся": 7601,
      "мыслям": 7602,
      "внутренней": 7603,
      "Песцовым": 7604,
      "известия": 7605,
      "многих": 7606,
      "кольцами": 7607,
      "мучаться": 7608,
      "сообщил": 7609,
      "прощай": 7610,
      "объявила": 7611,
      "карточки": 7612,
      "мальчиком": 7613,
      "офицеров": 7614,
      "необыкновенное": 7615,
      "любят": 7616,
      "Говорить": 7617,
      "составляло": 7618,
      "возражал": 7619,
      "экипажей": 7620,
      "празд": 7621,
      "затруднения": 7622,
      "сюртуке": 7623,
      "Возвра": 7624,
      "удовлетворения": 7625,
      "Беззу": 7626,
      "птица": 7627,
      "посети": 7628,
      "учреждение": 7629,
      "Стремо": 7630,
      "удобства": 7631,
      "раскаяние": 7632,
      "собралась": 7633,
      "Ужас": 7634,
      "начатый": 7635,
      "Позволь": 7636,
      "Позвольте": 7637,
      "Кознышев": 7638,
      "среде": 7639,
      "средото": 7640,
      "установилось": 7641,
      "чтение": 7642,
      "превосход": 7643,
      "супругов": 7644,
      "испугался": 7645,
      "свадьбы": 7646,
      "Махотин": 7647,
      "интересует": 7648,
      "определить": 7649,
      "процесс": 7650,
      "штука": 7651,
      "поговорим": 7652,
      "радуясь": 7653,
      "обстоятельство": 7654,
      "обстоятельства": 7655,
      "скочила": 7656,
      "великодушие": 7657,
      "дружелюб": 7658,
      "дружелюбно": 7659,
      "роскоши": 7660,
      "отчетливо": 7661,
      "тяготи": 7662,
      "Молодой": 7663,
      "Матрена": 7664,
      "неверности": 7665,
      "собирался": 7666,
      "бакенбардами": 7667,
      "Скажите": 7668,
      "Снетков": 7669,
      "аппе": 7670,
      "лиловом": 7671,
      "татарин": 7672,
      "ненатурально": 7673,
      "богатство": 7674,
      "fait": 7675,
      "челю": 7676,
      "ребята": 7677,
      "фамили": 7678,
      "Старик": 7679,
      "покровитель": 7680,
      "Благода": 7681,
      "Чири": 7682,
      "налево": 7683,
      "неудержимо": 7684,
      "охватило": 7685,
      "восьми": 7686,
      "Филипп": 7687,
      "невыносимо": 7688,
      "Меркалова": 7689,
      "Узнав": 7690,
      "Швейцар": 7691,
      "тепереш": 7692,
      "симпати": 7693,
      "бинокль": 7694,
      "баронесса": 7695,
      "аккуратно": 7696,
      "приобрете": 7697,
      "dame": 7698,
      "пристально": 7699,
      "Заметив": 7700,
      "Воспоминание": 7701,
      "ardon": 7702,
      "Удиви": 7703,
      "воскресенье": 7704,
      "Священник": 7705,
      "ЧАСТЬ": 7706,
      "bl": 7707,
      "dic": 7708,
      "ez": 7709,
      "eur": 7710,
      "ion": 7711,
      "ter": 7712,
      "the": 7713,
      "ux": 7714,
      "АЯ": 7715,
      "Бро": 7716,
      "Вслед": 7717,
      "Встре": 7718,
      "Ев": 7719,
      "Ено": 7720,
      "Жал": 7721,
      "Лили": 7722,
      "Мал": 7723,
      "Мало": 7724,
      "Оба": 7725,
      "См": 7726,
      "Слы": 7727,
      "Слова": 7728,
      "Тру": 7729,
      "Фле": 7730,
      "Чет": 7731,
      "брон": 7732,
      "брали": 7733,
      "вска": 7734,
      "вски": 7735,
      "вке": 7736,
      "входа": 7737,
      "вблизи": 7738,
      "дные": 7739,
      "дрым": 7740,
      "жкой": 7741,
      "зю": 7742,
      "лбу": 7743,
      "лга": 7744,
      "нским": 7745,
      "оч": 7746,
      "ощ": 7747,
      "овес": 7748,
      "ржа": 7749,
      "снима": 7750,
      "тный": 7751,
      "тное": 7752,
      "ура": 7753,
      "упра": 7754,
      "удал": 7755,
      "узнаю": 7756,
      "утру": 7757,
      "урод": 7758,
      "устала": 7759,
      "улице": 7760,
      "устрицы": 7761,
      "фы": 7762,
      "фер": 7763,
      "хвали": 7764,
      "ящик": 7765,
      "ярии": 7766,
      "точным": 7767,
      "нан": 7768,
      "нака": 7769,
      "нала": 7770,
      "наль": 7771,
      "назна": 7772,
      "наеди": 7773,
      "наряд": 7774,
      "нашему": 7775,
      "нету": 7776,
      "несла": 7777,
      "нений": 7778,
      "нечая": 7779,
      "недолго": 7780,
      "непрости": 7781,
      "невырази": 7782,
      "несчастья": 7783,
      "незамет": 7784,
      "неправиль": 7785,
      "необычай": 7786,
      "неприятен": 7787,
      "ноз": 7788,
      "новна": 7789,
      "новыми": 7790,
      "ногах": 7791,
      "новятся": 7792,
      "стят": 7793,
      "алле": 7794,
      "горь": 7795,
      "пота": 7796,
      "побу": 7797,
      "пожа": 7798,
      "подер": 7799,
      "посты": 7800,
      "поссо": 7801,
      "помило": 7802,
      "попросить": 7803,
      "повар": 7804,
      "поедешь": 7805,
      "попробо": 7806,
      "постыд": 7807,
      "поправляя": 7808,
      "побледне": 7809,
      "поощ": 7810,
      "копо": 7811,
      "коли": 7812,
      "коси": 7813,
      "колы": 7814,
      "козла": 7815,
      "кас": 7816,
      "каме": 7817,
      "какому": 7818,
      "какими": 7819,
      "капель": 7820,
      "вошедшего": 7821,
      "расе": 7822,
      "раски": 7823,
      "раясь": 7824,
      "рета": 7825,
      "револю": 7826,
      "вило": 7827,
      "вины": 7828,
      "рите": 7829,
      "лош": 7830,
      "лопа": 7831,
      "ласки": 7832,
      "лив": 7833,
      "ливре": 7834,
      "литера": 7835,
      "ванны": 7836,
      "ваний": 7837,
      "вашим": 7838,
      "вавшегося": 7839,
      "ваньем": 7840,
      "вед": 7841,
      "век": 7842,
      "вец": 7843,
      "вечно": 7844,
      "ветер": 7845,
      "весен": 7846,
      "сере": 7847,
      "сером": 7848,
      "заж": 7849,
      "зап": 7850,
      "зая": 7851,
      "заго": 7852,
      "зама": 7853,
      "затро": 7854,
      "застала": 7855,
      "заеду": 7856,
      "заставил": 7857,
      "запута": 7858,
      "заграни": 7859,
      "дока": 7860,
      "доли": 7861,
      "домо": 7862,
      "доска": 7863,
      "довал": 7864,
      "долю": 7865,
      "дошел": 7866,
      "договорить": 7867,
      "дожда": 7868,
      "доводов": 7869,
      "отго": 7870,
      "отби": 7871,
      "отвер": 7872,
      "отказы": 7873,
      "отправи": 7874,
      "откло": 7875,
      "отказать": 7876,
      "отправля": 7877,
      "отсюда": 7878,
      "дачу": 7879,
      "давай": 7880,
      "тетка": 7881,
      "сясь": 7882,
      "чением": 7883,
      "чению": 7884,
      "мучали": 7885,
      "мешо": 7886,
      "мощ": 7887,
      "мости": 7888,
      "моею": 7889,
      "тик": 7890,
      "тин": 7891,
      "тирая": 7892,
      "мин": 7893,
      "мистр": 7894,
      "таран": 7895,
      "вымы": 7896,
      "вынула": 7897,
      "выписа": 7898,
      "выходить": 7899,
      "вывести": 7900,
      "выходила": 7901,
      "выбрать": 7902,
      "выхода": 7903,
      "выпь": 7904,
      "выпуская": 7905,
      "ручон": 7906,
      "сосе": 7907,
      "сострадания": 7908,
      "сосредото": 7909,
      "скай": 7910,
      "скачка": 7911,
      "скакал": 7912,
      "нужда": 7913,
      "проз": 7914,
      "прось": 7915,
      "прогу": 7916,
      "просве": 7917,
      "прожил": 7918,
      "просвет": 7919,
      "протянул": 7920,
      "протягивая": 7921,
      "дик": 7922,
      "дико": 7923,
      "дившись": 7924,
      "прило": 7925,
      "присты": 7926,
      "приехав": 7927,
      "бесе": 7928,
      "беду": 7929,
      "бежав": 7930,
      "духом": 7931,
      "дупель": 7932,
      "босы": 7933,
      "нят": 7934,
      "лях": 7935,
      "хой": 7936,
      "масте": 7937,
      "стадо": 7938,
      "старую": 7939,
      "жир": 7940,
      "кури": 7941,
      "куста": 7942,
      "купаль": 7943,
      "столы": 7944,
      "обнови": 7945,
      "обстанов": 7946,
      "чике": 7947,
      "разло": 7948,
      "развер": 7949,
      "раздели": 7950,
      "разгорячи": 7951,
      "свод": 7952,
      "рыже": 7953,
      "рыдания": 7954,
      "стить": 7955,
      "преду": 7956,
      "изме": 7957,
      "изволи": 7958,
      "паде": 7959,
      "пают": 7960,
      "пасса": 7961,
      "рям": 7962,
      "подним": 7963,
      "подбежал": 7964,
      "жают": 7965,
      "била": 7966,
      "пие": 7967,
      "пира": 7968,
      "пили": 7969,
      "пиль": 7970,
      "пившись": 7971,
      "пились": 7972,
      "гает": 7973,
      "барьер": 7974,
      "шар": 7975,
      "шаться": 7976,
      "елом": 7977,
      "щику": 7978,
      "главному": 7979,
      "переехала": 7980,
      "переговари": 7981,
      "переоде": 7982,
      "переводя": 7983,
      "переносить": 7984,
      "рассе": 7985,
      "распре": 7986,
      "распла": 7987,
      "расстрое": 7988,
      "густой": 7989,
      "следил": 7990,
      "хоте": 7991,
      "вздра": 7992,
      "Александра": 7993,
      "пуши": 7994,
      "сунду": 7995,
      "детстве": 7996,
      "предприя": 7997,
      "сложив": 7998,
      "Каж": 7999,
      "Каши": 8000,
      "комму": 8001,
      "смела": 8002,
      "Поди": 8003,
      "Полу": 8004,
      "Покров": 8005,
      "жалкое": 8006,
      "возвы": 8007,
      "возрази": 8008,
      "возобнови": 8009,
      "слух": 8010,
      "слуга": 8011,
      "страдал": 8012,
      "страстью": 8013,
      "страдать": 8014,
      "страдала": 8015,
      "страдаль": 8016,
      "вления": 8017,
      "ждении": 8018,
      "оставалась": 8019,
      "оставьте": 8020,
      "стены": 8021,
      "стекла": 8022,
      "стесня": 8023,
      "стесне": 8024,
      "любимой": 8025,
      "любимого": 8026,
      "шутил": 8027,
      "человеке": 8028,
      "строгим": 8029,
      "испа": 8030,
      "смеши": 8031,
      "смеет": 8032,
      "обращался": 8033,
      "кончается": 8034,
      "понятии": 8035,
      "держали": 8036,
      "особенный": 8037,
      "красным": 8038,
      "красное": 8039,
      "красную": 8040,
      "весной": 8041,
      "самоувере": 8042,
      "слышу": 8043,
      "дорог": 8044,
      "дорога": 8045,
      "Кому": 8046,
      "интона": 8047,
      "инстинк": 8048,
      "замени": 8049,
      "особенною": 8050,
      "крат": 8051,
      "краше": 8052,
      "слабы": 8053,
      "скучи": 8054,
      "понимания": 8055,
      "выражалась": 8056,
      "встретив": 8057,
      "встречались": 8058,
      "зимой": 8059,
      "деньгами": 8060,
      "сталки": 8061,
      "твою": 8062,
      "решили": 8063,
      "решилась": 8064,
      "стыдиться": 8065,
      "чьи": 8066,
      "молоко": 8067,
      "молодень": 8068,
      "молодай": 8069,
      "Моли": 8070,
      "приятны": 8071,
      "приятный": 8072,
      "женщиной": 8073,
      "ковру": 8074,
      "желаний": 8075,
      "крокет": 8076,
      "вопросу": 8077,
      "вопросом": 8078,
      "вопросами": 8079,
      "цыпоч": 8080,
      "продолжаться": 8081,
      "подошли": 8082,
      "тридцати": 8083,
      "правде": 8084,
      "довольна": 8085,
      "довольны": 8086,
      "ставив": 8087,
      "циями": 8088,
      "черной": 8089,
      "движении": 8090,
      "спокойное": 8091,
      "двора": 8092,
      "получа": 8093,
      "умрет": 8094,
      "зовле": 8095,
      "золов": 8096,
      "остановила": 8097,
      "лошадях": 8098,
      "сделался": 8099,
      "знакомое": 8100,
      "слышны": 8101,
      "Митю": 8102,
      "всякую": 8103,
      "глуп": 8104,
      "комната": 8105,
      "рующего": 8106,
      "горела": 8107,
      "гордилась": 8108,
      "веселое": 8109,
      "хозяйки": 8110,
      "верит": 8111,
      "последнем": 8112,
      "пойме": 8113,
      "пойти": 8114,
      "обычный": 8115,
      "пустит": 8116,
      "трое": 8117,
      "трой": 8118,
      "ловко": 8119,
      "работник": 8120,
      "письменно": 8121,
      "счастливо": 8122,
      "длинные": 8123,
      "длинной": 8124,
      "худую": 8125,
      "террасе": 8126,
      "шуюся": 8127,
      "свойства": 8128,
      "чувствуют": 8129,
      "волну": 8130,
      "сплош": 8131,
      "открыть": 8132,
      "равнодушен": 8133,
      "совести": 8134,
      "совету": 8135,
      "дурном": 8136,
      "сделаем": 8137,
      "сделайте": 8138,
      "щурившись": 8139,
      "сомневаюсь": 8140,
      "клас": 8141,
      "холоден": 8142,
      "Облонских": 8143,
      "спине": 8144,
      "спиной": 8145,
      "кончился": 8146,
      "надея": 8147,
      "кормле": 8148,
      "читая": 8149,
      "здоров": 8150,
      "находилась": 8151,
      "помоли": 8152,
      "ясность": 8153,
      "испытывая": 8154,
      "орга": 8155,
      "объясняла": 8156,
      "громче": 8157,
      "долгов": 8158,
      "занять": 8159,
      "занятие": 8160,
      "высокой": 8161,
      "высокие": 8162,
      "стараюсь": 8163,
      "доброде": 8164,
      "Приказ": 8165,
      "ожидание": 8166,
      "колеса": 8167,
      "колеблю": 8168,
      "Проща": 8169,
      "Проходя": 8170,
      "маленькая": 8171,
      "маленькими": 8172,
      "XXII": 8173,
      "XXIII": 8174,
      "согласны": 8175,
      "простит": 8176,
      "простите": 8177,
      "проститься": 8178,
      "прелюбо": 8179,
      "зависело": 8180,
      "светло": 8181,
      "охотничь": 8182,
      "обоим": 8183,
      "оборот": 8184,
      "шляп": 8185,
      "пожалуйте": 8186,
      "принято": 8187,
      "найдя": 8188,
      "найдете": 8189,
      "бессон": 8190,
      "les": 8191,
      "плох": 8192,
      "покачал": 8193,
      "покажу": 8194,
      "лентами": 8195,
      "русски": 8196,
      "признак": 8197,
      "признание": 8198,
      "признаков": 8199,
      "Петерго": 8200,
      "ненавидеть": 8201,
      "Болга": 8202,
      "искала": 8203,
      "злобой": 8204,
      "образован": 8205,
      "страдание": 8206,
      "женщинами": 8207,
      "дальнем": 8208,
      "видная": 8209,
      "красива": 8210,
      "обмануть": 8211,
      "ужаснее": 8212,
      "ужаснулась": 8213,
      "девушкой": 8214,
      "девушке": 8215,
      "горяча": 8216,
      "позвонила": 8217,
      "нравился": 8218,
      "нравиться": 8219,
      "поспешил": 8220,
      "семьей": 8221,
      "решении": 8222,
      "остались": 8223,
      "приезд": 8224,
      "существует": 8225,
      "Очевидно": 8226,
      "встав": 8227,
      "прежним": 8228,
      "усилием": 8229,
      "нежною": 8230,
      "записки": 8231,
      "Кузовле": 8232,
      "смутился": 8233,
      "начинала": 8234,
      "везти": 8235,
      "сознания": 8236,
      "изменился": 8237,
      "оставили": 8238,
      "поравня": 8239,
      "Яшвину": 8240,
      "дворянин": 8241,
      "Васеньки": 8242,
      "блестящих": 8243,
      "исполнения": 8244,
      "целярии": 8245,
      "отчаяние": 8246,
      "отчаянии": 8247,
      "седла": 8248,
      "Стивы": 8249,
      "грома": 8250,
      "спута": 8251,
      "статье": 8252,
      "смотришь": 8253,
      "отворе": 8254,
      "уезде": 8255,
      "уезжает": 8256,
      "веселыми": 8257,
      "Были": 8258,
      "уважа": 8259,
      "уважал": 8260,
      "уважения": 8261,
      "уважаю": 8262,
      "закону": 8263,
      "живопись": 8264,
      "власти": 8265,
      "власть": 8266,
      "смешное": 8267,
      "удивлен": 8268,
      "удивлению": 8269,
      "Хозя": 8270,
      "огромными": 8271,
      "сняв": 8272,
      "сняла": 8273,
      "успокоиться": 8274,
      "посели": 8275,
      "разумом": 8276,
      "забывал": 8277,
      "забывая": 8278,
      "страшные": 8279,
      "учение": 8280,
      "ческими": 8281,
      "источ": 8282,
      "болоту": 8283,
      "успех": 8284,
      "успеть": 8285,
      "товарищу": 8286,
      "обязан": 8287,
      "намерения": 8288,
      "воспитывать": 8289,
      "занимать": 8290,
      "беременно": 8291,
      "избегать": 8292,
      "действовала": 8293,
      "общественное": 8294,
      "общественных": 8295,
      "повторяю": 8296,
      "повторять": 8297,
      "играли": 8298,
      "комисси": 8299,
      "щуюся": 8300,
      "нынешнем": 8301,
      "свидании": 8302,
      "морфи": 8303,
      "службу": 8304,
      "тягивала": 8305,
      "ющегося": 8306,
      "направлении": 8307,
      "отдавая": 8308,
      "интересный": 8309,
      "интересного": 8310,
      "угол": 8311,
      "отъезде": 8312,
      "мгновенно": 8313,
      "Корд": 8314,
      "трудности": 8315,
      "жом": 8316,
      "упрекал": 8317,
      "упрекала": 8318,
      "выразил": 8319,
      "соображение": 8320,
      "переменила": 8321,
      "щихся": 8322,
      "больному": 8323,
      "успели": 8324,
      "ничтожно": 8325,
      "судьи": 8326,
      "судьбу": 8327,
      "недоставало": 8328,
      "щиеся": 8329,
      "здоровьем": 8330,
      "Меня": 8331,
      "освеще": 8332,
      "подтвердила": 8333,
      "шутку": 8334,
      "землевла": 8335,
      "употребить": 8336,
      "справедливости": 8337,
      "цветы": 8338,
      "потерял": 8339,
      "обидно": 8340,
      "показывал": 8341,
      "утеши": 8342,
      "утешение": 8343,
      "разошлись": 8344,
      "дыхание": 8345,
      "останавливался": 8346,
      "священника": 8347,
      "искусстве": 8348,
      "подозрения": 8349,
      "ворота": 8350,
      "прошедшем": 8351,
      "понятиям": 8352,
      "минутку": 8353,
      "петербургский": 8354,
      "грибами": 8355,
      "звон": 8356,
      "слушай": 8357,
      "движениях": 8358,
      "чрезвычайною": 8359,
      "послали": 8360,
      "приближа": 8361,
      "третьего": 8362,
      "убедившись": 8363,
      "nez": 8364,
      "назвал": 8365,
      "достав": 8366,
      "министра": 8367,
      "привезе": 8368,
      "веселую": 8369,
      "прислушивался": 8370,
      "актри": 8371,
      "гнева": 8372,
      "умирающего": 8373,
      "шлей": 8374,
      "несчастия": 8375,
      "поверь": 8376,
      "дожидался": 8377,
      "барыня": 8378,
      "склад": 8379,
      "исчезло": 8380,
      "исчезла": 8381,
      "пьян": 8382,
      "хлопот": 8383,
      "намека": 8384,
      "область": 8385,
      "позволил": 8386,
      "Граф": 8387,
      "пчела": 8388,
      "молиться": 8389,
      "сообщить": 8390,
      "прощайте": 8391,
      "борьба": 8392,
      "знаменитого": 8393,
      "устройстве": 8394,
      "офицера": 8395,
      "является": 8396,
      "Бабы": 8397,
      "необыкновенного": 8398,
      "мента": 8399,
      "чужого": 8400,
      "подъехал": 8401,
      "подъехали": 8402,
      "притворно": 8403,
      "притворство": 8404,
      "канцелярии": 8405,
      "защищать": 8406,
      "приятельница": 8407,
      "mademoiselle": 8408,
      "пьет": 8409,
      "праздно": 8410,
      "XXVII": 8411,
      "английски": 8412,
      "нагнувшись": 8413,
      "мученье": 8414,
      "художника": 8415,
      "бекас": 8416,
      "бекасов": 8417,
      "беседке": 8418,
      "смелости": 8419,
      "спасение": 8420,
      "университета": 8421,
      "собрался": 8422,
      "гимназии": 8423,
      "белье": 8424,
      "вайтесь": 8425,
      "представления": 8426,
      "перчатку": 8427,
      "клевер": 8428,
      "заседании": 8429,
      "склонив": 8430,
      "советник": 8431,
      "свадьбу": 8432,
      "ridic": 8433,
      "отрека": 8434,
      "дивана": 8435,
      "диване": 8436,
      "боишься": 8437,
      "разговорился": 8438,
      "обещание": 8439,
      "руководить": 8440,
      "медвежь": 8441,
      "просят": 8442,
      "подхватил": 8443,
      "рассматри": 8444,
      "коридор": 8445,
      "коридору": 8446,
      "враждебности": 8447,
      "Пускай": 8448,
      "поговорив": 8449,
      "посмотрите": 8450,
      "лампой": 8451,
      "танцевала": 8452,
      "чиновника": 8453,
      "газеты": 8454,
      "расходы": 8455,
      "смотрев": 8456,
      "готовилась": 8457,
      "добровольцев": 8458,
      "разочарова": 8459,
      "коньках": 8460,
      "сообразно": 8461,
      "сапогах": 8462,
      "разнообразные": 8463,
      "вырвать": 8464,
      "березо": 8465,
      "беспокойство": 8466,
      "обдумывал": 8467,
      "глупый": 8468,
      "заботиться": 8469,
      "бакенбарды": 8470,
      "занимался": 8471,
      "отдельно": 8472,
      "вырос": 8473,
      "матушка": 8474,
      "темноте": 8475,
      "одеяло": 8476,
      "настаивал": 8477,
      "мазурку": 8478,
      "расстрои": 8479,
      "председатель": 8480,
      "Филимонов": 8481,
      "Филимоновна": 8482,
      "секретарь": 8483,
      "Жена": 8484,
      "участво": 8485,
      "натурально": 8486,
      "поглядывая": 8487,
      "кавале": 8488,
      "затея": 8489,
      "соломе": 8490,
      "прибавля": 8491,
      "разобрать": 8492,
      "концерт": 8493,
      "благородно": 8494,
      "итальян": 8495,
      "июня": 8496,
      "халат": 8497,
      "задушевных": 8498,
      "дешевле": 8499,
      "выставляя": 8500,
      "чужих": 8501,
      "Лошадь": 8502,
      "флиг": 8503,
      "столкнулся": 8504,
      "Брянскому": 8505,
      "отчета": 8506,
      "депешу": 8507,
      "преодолеть": 8508,
      "Посмотрите": 8509,
      "поверхно": 8510,
      "сочувствие": 8511,
      "безнаде": 8512,
      "неестественно": 8513,
      "Помещик": 8514,
      "неверующий": 8515,
      "голубчик": 8516,
      "Бартня": 8517,
      "Вреде": 8518,
      "артилле": 8519,
      "нетерпели": 8520,
      "жеребца": 8521,
      "застенчиво": 8522,
      "отталки": 8523,
      "саживаясь": 8524,
      "Катерина": 8525,
      "Возвращаясь": 8526,
      "Чириков": 8527,
      "Евге": 8528,
      "Жалко": 8529,
      "Смотри": 8530,
      "наедине": 8531,
      "козлах": 8532,
      "таранта": 8533,
      "прелюбодея": 8534,
      "Болгари": 8535,
      "ridicule": 8536,
      "Mar": 8537,
      "ai": 8538,
      "br": 8539,
      "glais": 8540,
      "ht": 8541,
      "il": 8542,
      "mon": 8543,
      "ment": 8544,
      "ni": 8545,
      "om": 8546,
      "pin": 8547,
      "tes": 8548,
      "une": 8549,
      "Вспо": 8550,
      "Вели": 8551,
      "Вместо": 8552,
      "Вместе": 8553,
      "Губе": 8554,
      "Доб": 8555,
      "Дву": 8556,
      "День": 8557,
      "Едва": 8558,
      "Евангели": 8559,
      "Жен": 8560,
      "Кри": 8561,
      "Ня": 8562,
      "Ост": 8563,
      "Пла": 8564,
      "Прел": 8565,
      "Сы": 8566,
      "Сю": 8567,
      "Свет": 8568,
      "Сзади": 8569,
      "Тю": 8570,
      "Тя": 8571,
      "Тот": 8572,
      "Челове": 8573,
      "ака": 8574,
      "арен": 8575,
      "бю": 8576,
      "бря": 8577,
      "брас": 8578,
      "вский": 8579,
      "влов": 8580,
      "входить": 8581,
      "входила": 8582,
      "вбежал": 8583,
      "вдох": 8584,
      "вслух": 8585,
      "дю": 8586,
      "драз": 8587,
      "днее": 8588,
      "дце": 8589,
      "дцы": 8590,
      "ест": 8591,
      "емо": 8592,
      "емой": 8593,
      "жными": 8594,
      "ждало": 8595,
      "ждалась": 8596,
      "зти": 8597,
      "залось": 8598,
      "зин": 8599,
      "ила": 8600,
      "игро": 8601,
      "идут": 8602,
      "ищет": 8603,
      "кстати": 8604,
      "мна": 8605,
      "охо": 8606,
      "огу": 8607,
      "опы": 8608,
      "осмотрел": 8609,
      "оправда": 8610,
      "ограни": 8611,
      "опуская": 8612,
      "рщи": 8613,
      "ртом": 8614,
      "рник": 8615,
      "сче": 8616,
      "свер": 8617,
      "спря": 8618,
      "сфе": 8619,
      "сверх": 8620,
      "смир": 8621,
      "сверху": 8622,
      "тком": 8623,
      "тная": 8624,
      "уст": 8625,
      "упо": 8626,
      "ушей": 8627,
      "уступ": 8628,
      "удали": 8629,
      "уедем": 8630,
      "удержал": 8631,
      "улицу": 8632,
      "увлека": 8633,
      "уедешь": 8634,
      "усмех": 8635,
      "усмешкой": 8636,
      "фел": 8637,
      "фере": 8638,
      "фар": 8639,
      "хли": 8640,
      "хнул": 8641,
      "чмо": 8642,
      "чтя": 8643,
      "щались": 8644,
      "этак": 8645,
      "юби": 8646,
      "ющею": 8647,
      "това": 8648,
      "товст": 8649,
      "тобою": 8650,
      "наве": 8651,
      "надела": 8652,
      "надеть": 8653,
      "наступи": 8654,
      "наверно": 8655,
      "наслед": 8656,
      "назначения": 8657,
      "напомнила": 8658,
      "нено": 8659,
      "непо": 8660,
      "нева": 8661,
      "неот": 8662,
      "небе": 8663,
      "неволь": 8664,
      "неуме": 8665,
      "недав": 8666,
      "некоторым": 8667,
      "недель": 8668,
      "нежным": 8669,
      "неправду": 8670,
      "неумол": 8671,
      "неровно": 8672,
      "несчастью": 8673,
      "неодобрительно": 8674,
      "непосред": 8675,
      "ноче": 8676,
      "ностью": 8677,
      "носом": 8678,
      "носил": 8679,
      "ножом": 8680,
      "стные": 8681,
      "аллее": 8682,
      "горы": 8683,
      "годится": 8684,
      "пов": 8685,
      "побыть": 8686,
      "поговорил": 8687,
      "потя": 8688,
      "полюбить": 8689,
      "поправля": 8690,
      "помогут": 8691,
      "потяги": 8692,
      "позади": 8693,
      "поставить": 8694,
      "постойте": 8695,
      "кот": 8696,
      "косо": 8697,
      "копе": 8698,
      "косил": 8699,
      "копей": 8700,
      "косой": 8701,
      "косясь": 8702,
      "нится": 8703,
      "кати": 8704,
      "качи": 8705,
      "канье": 8706,
      "какова": 8707,
      "вовремя": 8708,
      "ровал": 8709,
      "рее": 8710,
      "реже": 8711,
      "ревну": 8712,
      "репута": 8713,
      "вить": 8714,
      "вила": 8715,
      "виным": 8716,
      "винов": 8717,
      "ложа": 8718,
      "лаво": 8719,
      "ласка": 8720,
      "бывали": 8721,
      "бывшего": 8722,
      "линей": 8723,
      "ливый": 8724,
      "вавшим": 8725,
      "вавшиеся": 8726,
      "вавшем": 8727,
      "ваемые": 8728,
      "серо": 8729,
      "жених": 8730,
      "женной": 8731,
      "заста": 8732,
      "завер": 8733,
      "задом": 8734,
      "забуду": 8735,
      "зарази": 8736,
      "застать": 8737,
      "замира": 8738,
      "заставить": 8739,
      "зацепи": 8740,
      "зашевели": 8741,
      "захваты": 8742,
      "лем": 8743,
      "лень": 8744,
      "лету": 8745,
      "левой": 8746,
      "лечь": 8747,
      "дот": 8748,
      "дошло": 8749,
      "допуска": 8750,
      "допустить": 8751,
      "донесе": 8752,
      "добиться": 8753,
      "отдел": 8754,
      "отдала": 8755,
      "отвернувшись": 8756,
      "отдых": 8757,
      "отдох": 8758,
      "дан": 8759,
      "давала": 8760,
      "дамой": 8761,
      "данные": 8762,
      "теоре": 8763,
      "ческая": 8764,
      "меру": 8765,
      "меров": 8766,
      "медли": 8767,
      "мешать": 8768,
      "мост": 8769,
      "мокро": 8770,
      "тихи": 8771,
      "милы": 8772,
      "тащи": 8773,
      "тарел": 8774,
      "тант": 8775,
      "кив": 8776,
      "кинул": 8777,
      "выши": 8778,
      "выпу": 8779,
      "выдума": 8780,
      "вырез": 8781,
      "выпустил": 8782,
      "выстав": 8783,
      "выстрели": 8784,
      "сочувствовал": 8785,
      "состави": 8786,
      "сойти": 8787,
      "соус": 8788,
      "скан": 8789,
      "сками": 8790,
      "скатер": 8791,
      "нуне": 8792,
      "нутым": 8793,
      "льсон": 8794,
      "проходи": 8795,
      "променя": 8796,
      "проведе": 8797,
      "прогре": 8798,
      "прижи": 8799,
      "притом": 8800,
      "придать": 8801,
      "пристя": 8802,
      "прижала": 8803,
      "пришло": 8804,
      "принимали": 8805,
      "бегу": 8806,
      "бегал": 8807,
      "пет": 8808,
      "петь": 8809,
      "печа": 8810,
      "перила": 8811,
      "бого": 8812,
      "боку": 8813,
      "няет": 8814,
      "няню": 8815,
      "шеб": 8816,
      "сани": 8817,
      "саха": 8818,
      "садиться": 8819,
      "ходь": 8820,
      "маку": 8821,
      "становятся": 8822,
      "шир": 8823,
      "шилось": 8824,
      "кучу": 8825,
      "кузи": 8826,
      "кусок": 8827,
      "стое": 8828,
      "обло": 8829,
      "обле": 8830,
      "обтяну": 8831,
      "обняла": 8832,
      "знак": 8833,
      "сив": 8834,
      "сидит": 8835,
      "чий": 8836,
      "читывать": 8837,
      "разде": 8838,
      "развра": 8839,
      "разница": 8840,
      "размахивая": 8841,
      "тыка": 8842,
      "тывал": 8843,
      "щена": 8844,
      "изм": 8845,
      "изя": 8846,
      "излише": 8847,
      "встрях": 8848,
      "пари": 8849,
      "пада": 8850,
      "рядами": 8851,
      "тактом": 8852,
      "поднимал": 8853,
      "подходила": 8854,
      "подлоб": 8855,
      "жан": 8856,
      "жаром": 8857,
      "бился": 8858,
      "писк": 8859,
      "гадливо": 8860,
      "вернется": 8861,
      "баба": 8862,
      "шат": 8863,
      "шает": 8864,
      "шают": 8865,
      "шаров": 8866,
      "шараба": 8867,
      "щики": 8868,
      "щиком": 8869,
      "глас": 8870,
      "жностью": 8871,
      "перешла": 8872,
      "перепол": 8873,
      "передала": 8874,
      "пережил": 8875,
      "расста": 8876,
      "рассте": 8877,
      "расспрашивать": 8878,
      "алисти": 8879,
      "правы": 8880,
      "дышала": 8881,
      "Александровной": 8882,
      "путь": 8883,
      "сук": 8884,
      "суп": 8885,
      "сунул": 8886,
      "хах": 8887,
      "детские": 8888,
      "предпола": 8889,
      "предстоит": 8890,
      "предмет": 8891,
      "сложи": 8892,
      "Карета": 8893,
      "Казалось": 8894,
      "компроме": 8895,
      "ходившие": 8896,
      "шелко": 8897,
      "вном": 8898,
      "вность": 8899,
      "Алексее": 8900,
      "ездо": 8901,
      "Поль": 8902,
      "Помни": 8903,
      "дями": 8904,
      "дятся": 8905,
      "воздуха": 8906,
      "сквер": 8907,
      "цент": 8908,
      "страстно": 8909,
      "ответы": 8910,
      "сыр": 8911,
      "временно": 8912,
      "женского": 8913,
      "ждений": 8914,
      "брав": 8915,
      "брака": 8916,
      "останусь": 8917,
      "стес": 8918,
      "стеречь": 8919,
      "стекля": 8920,
      "Ивана": 8921,
      "шубы": 8922,
      "шуме": 8923,
      "исподлоб": 8924,
      "пятьсот": 8925,
      "думайте": 8926,
      "Несколько": 8927,
      "Невского": 8928,
      "улыбнувшись": 8929,
      "смеха": 8930,
      "свежим": 8931,
      "свежей": 8932,
      "свежую": 8933,
      "Доро": 8934,
      "тями": 8935,
      "тяжела": 8936,
      "сказаны": 8937,
      "консер": 8938,
      "концы": 8939,
      "конфу": 8940,
      "стуль": 8941,
      "ступени": 8942,
      "взглядов": 8943,
      "глазам": 8944,
      "вят": 8945,
      "вязал": 8946,
      "имение": 8947,
      "имения": 8948,
      "имеем": 8949,
      "именье": 8950,
      "понятно": 8951,
      "перла": 8952,
      "перело": 8953,
      "первому": 8954,
      "беззабот": 8955,
      "безнравстве": 8956,
      "безвыхо": 8957,
      "самолюби": 8958,
      "самодоволь": 8959,
      "самовара": 8960,
      "Наступило": 8961,
      "блес": 8962,
      "бледно": 8963,
      "блесте": 8964,
      "слышен": 8965,
      "дороже": 8966,
      "ятся": 8967,
      "войны": 8968,
      "замети": 8969,
      "заметили": 8970,
      "Ники": 8971,
      "крах": 8972,
      "краю": 8973,
      "полного": 8974,
      "полную": 8975,
      "спросили": 8976,
      "скучать": 8977,
      "выражений": 8978,
      "встречи": 8979,
      "встречал": 8980,
      "встречать": 8981,
      "встретился": 8982,
      "трава": 8983,
      "траги": 8984,
      "твоим": 8985,
      "стыдом": 8986,
      "молотил": 8987,
      "позе": 8988,
      "позвольте": 8989,
      "взявшись": 8990,
      "кровать": 8991,
      "цыга": 8992,
      "продолжение": 8993,
      "подой": 8994,
      "радовало": 8995,
      "увидите": 8996,
      "нужного": 8997,
      "правки": 8998,
      "совершенства": 8999,
      "Дарьей": 9000,
      "общей": 9001,
      "ций": 9002,
      "цион": 9003,
      "черт": 9004,
      "черно": 9005,
      "черном": 9006,
      "умен": 9007,
      "внешно": 9008,
      "получает": 9009,
      "будучи": 9010,
      "будущего": 9011,
      "одиннадцать": 9012,
      "умное": 9013,
      "Мадам": 9014,
      "врага": 9015,
      "зой": 9016,
      "остановив": 9017,
      "Александровиче": 9018,
      "кричит": 9019,
      "кричали": 9020,
      "водили": 9021,
      "груст": 9022,
      "глупа": 9023,
      "комнат": 9024,
      "специ": 9025,
      "хозяйке": 9026,
      "верили": 9027,
      "объявля": 9028,
      "последняя": 9029,
      "йтесь": 9030,
      "святы": 9031,
      "плечах": 9032,
      "ген": 9033,
      "Возь": 9034,
      "тронулся": 9035,
      "нувшуюся": 9036,
      "правительство": 9037,
      "правителем": 9038,
      "работники": 9039,
      "работниками": 9040,
      "лицам": 9041,
      "счастливая": 9042,
      "счастливою": 9043,
      "Откуда": 9044,
      "Отлично": 9045,
      "худ": 9046,
      "величай": 9047,
      "чувствуете": 9048,
      "волшеб": 9049,
      "открыв": 9050,
      "открыла": 9051,
      "открытою": 9052,
      "равномерно": 9053,
      "сделаны": 9054,
      "сделается": 9055,
      "сомневался": 9056,
      "сомневалась": 9057,
      "положением": 9058,
      "зуб": 9059,
      "зут": 9060,
      "зуба": 9061,
      "шедшие": 9062,
      "неприятна": 9063,
      "неприятны": 9064,
      "произнес": 9065,
      "производя": 9066,
      "кончились": 9067,
      "простор": 9068,
      "простотой": 9069,
      "толко": 9070,
      "толстый": 9071,
      "надежду": 9072,
      "мерз": 9073,
      "находит": 9074,
      "находишь": 9075,
      "помогать": 9076,
      "поморщи": 9077,
      "держится": 9078,
      "испытывает": 9079,
      "сильна": 9080,
      "сильных": 9081,
      "недоразуме": 9082,
      "высоком": 9083,
      "высокую": 9084,
      "доброю": 9085,
      "доброту": 9086,
      "ожидает": 9087,
      "ожидании": 9088,
      "спрашиваете": 9089,
      "Проводи": 9090,
      "жалостно": 9091,
      "старше": 9092,
      "старались": 9093,
      "маленьком": 9094,
      "маленьким": 9095,
      "XXXI": 9096,
      "простился": 9097,
      "ствуя": 9098,
      "самим": 9099,
      "anglais": 9100,
      "водки": 9101,
      "зависти": 9102,
      "завидую": 9103,
      "летнего": 9104,
      "тонкой": 9105,
      "охотник": 9106,
      "оборачи": 9107,
      "писали": 9108,
      "приняты": 9109,
      "завтрака": 9110,
      "пальцев": 9111,
      "селе": 9112,
      "русским": 9113,
      "ственном": 9114,
      "ненавидел": 9115,
      "Боло": 9116,
      "Более": 9117,
      "молчать": 9118,
      "богатый": 9119,
      "злоба": 9120,
      "тележку": 9121,
      "письмом": 9122,
      "звучно": 9123,
      "делика": 9124,
      "свободен": 9125,
      "скрылась": 9126,
      "скрывала": 9127,
      "решительностью": 9128,
      "дальний": 9129,
      "видна": 9130,
      "видне": 9131,
      "красиво": 9132,
      "красивые": 9133,
      "тяжелого": 9134,
      "устроил": 9135,
      "ужаснулся": 9136,
      "приятели": 9137,
      "приятелей": 9138,
      "телям": 9139,
      "поспеть": 9140,
      "перебивая": 9141,
      "остальные": 9142,
      "рабочей": 9143,
      "рабочую": 9144,
      "существую": 9145,
      "предложить": 9146,
      "легкомысле": 9147,
      "досаду": 9148,
      "высших": 9149,
      "высшее": 9150,
      "высоте": 9151,
      "высоты": 9152,
      "прежней": 9153,
      "определенные": 9154,
      "Щербацкой": 9155,
      "столкнове": 9156,
      "личный": 9157,
      "личное": 9158,
      "представилось": 9159,
      "смутившись": 9160,
      "смущало": 9161,
      "Княжна": 9162,
      "называют": 9163,
      "потребно": 9164,
      "поезжай": 9165,
      "Васеньке": 9166,
      "исполнила": 9167,
      "исполнении": 9168,
      "Совсем": 9169,
      "отчаянным": 9170,
      "труднее": 9171,
      "ers": 9172,
      "причин": 9173,
      "важном": 9174,
      "Пава": 9175,
      "Павлов": 9176,
      "уезда": 9177,
      "уезжаю": 9178,
      "вающее": 9179,
      "скорей": 9180,
      "живого": 9181,
      "интересовать": 9182,
      "властью": 9183,
      "соединить": 9184,
      "соединении": 9185,
      "правляясь": 9186,
      "требовали": 9187,
      "смешного": 9188,
      "удивление": 9189,
      "холодною": 9190,
      "холодность": 9191,
      "серьезный": 9192,
      "ждался": 9193,
      "полей": 9194,
      "Ласку": 9195,
      "бороны": 9196,
      "боролся": 9197,
      "возвраща": 9198,
      "узнавала": 9199,
      "оскорбило": 9200,
      "оскорбительно": 9201,
      "ученого": 9202,
      "закрыл": 9203,
      "Само": 9204,
      "терять": 9205,
      "приказал": 9206,
      "оживленный": 9207,
      "Марье": 9208,
      "Марью": 9209,
      "товарищем": 9210,
      "обязанностей": 9211,
      "настоящего": 9212,
      "намерением": 9213,
      "короткими": 9214,
      "избегала": 9215,
      "крылья": 9216,
      "крыльцу": 9217,
      "десятину": 9218,
      "испуганным": 9219,
      "выбор": 9220,
      "ударил": 9221,
      "удерживать": 9222,
      "aut": 9223,
      "морща": 9224,
      "служба": 9225,
      "уровень": 9226,
      "отдаваться": 9227,
      "отъезд": 9228,
      "рублевую": 9229,
      "грех": 9230,
      "талант": 9231,
      "трудность": 9232,
      "близкого": 9233,
      "выразило": 9234,
      "пятнадцать": 9235,
      "замечательный": 9236,
      "радостного": 9237,
      "радостною": 9238,
      "ярком": 9239,
      "видеться": 9240,
      "добрые": 9241,
      "добрыми": 9242,
      "вызвал": 9243,
      "che": 9244,
      "несчастного": 9245,
      "перемену": 9246,
      "рассуждение": 9247,
      "рассуждать": 9248,
      "шутка": 9249,
      "портрета": 9250,
      "холодную": 9251,
      "дворянство": 9252,
      "городской": 9253,
      "заплатить": 9254,
      "мундир": 9255,
      "мундирах": 9256,
      "тихонь": 9257,
      "цветов": 9258,
      "нахмуре": 9259,
      "зеркал": 9260,
      "поклонившись": 9261,
      "вальса": 9262,
      "главных": 9263,
      "тянутую": 9264,
      "прелестная": 9265,
      "Вишь": 9266,
      "кормить": 9267,
      "кормилица": 9268,
      "существование": 9269,
      "неожиданное": 9270,
      "женится": 9271,
      "махал": 9272,
      "махнул": 9273,
      "дыхания": 9274,
      "влияния": 9275,
      "смертью": 9276,
      "манеру": 9277,
      "спальни": 9278,
[...]
